<unk>	0
<bos>	0
<eos>	0
<pad>	0
<im_user>	0
<im_end>	0
▁t	-0
▁a	-1
he	-2
in	-3
re	-4
▁the	-5
on	-6
er	-7
▁s	-8
▁w	-9
at	-10
▁o	-11
en	-12
▁c	-13
it	-14
is	-15
an	-16
or	-17
▁b	-18
es	-19
ed	-20
▁f	-21
ing	-22
▁p	-23
ou	-24
▁an	-25
▁to	-26
al	-27
ar	-28
▁m	-29
▁in	-30
▁of	-31
▁h	-32
▁d	-33
as	-34
ic	-35
▁and	-36
▁th	-37
le	-38
om	-39
ion	-40
ll	-41
ent	-42
▁T	-43
▁n	-44
▁l	-45
▁re	-46
st	-47
ve	-48
ly	-49
▁e	-50
ro	-51
▁be	-52
▁g	-53
id	-54
▁I	-55
ut	-56
ac	-57
▁S	-58
ot	-59
▁A	-60
▁that	-61
▁on	-62
ay	-63
▁is	-64
im	-65
et	-66
am	-67
ad	-68
ow	-69
ig	-70
se	-71
▁for	-72
▁C	-73
ver	-74
ur	-75
ld	-76
ct	-77
▁u	-78
▁st	-79
▁y	-80
▁M	-81
▁it	-82
▁he	-83
ir	-84
ation	-85
ith	-86
▁B	-87
▁wh	-88
ce	-89
▁The	-90
ter	-91
▁we	-92
ol	-93
il	-94
▁with	-95
▁as	-96
▁P	-97
ch	-98
ill	-99
▁W	-100
nd	-101
▁was	-102
ers	-103
▁you	-104
ke	-105
▁H	-106
▁con	-107
▁de	-108
▁r	-109
her	-110
▁D	-111
if	-112
ate	-113
▁at	-114
ag	-115
▁R	-116
▁ha	-117
▁se	-118
▁F	-119
ore	-120
▁pro	-121
ul	-122
pp	-123
ment	-124
▁are	-125
ri	-126
est	-127
▁com	-128
us	-129
ist	-130
and	-131
op	-132
ain	-133
▁N	-134
igh	-135
rom	-136
▁(	-137
ort	-138
od	-139
▁ne	-140
▁“	-141
▁ex	-142
um	-143
un	-144
▁G	-145
res	-146
ab	-147
▁not	-148
▁v	-149
▁L	-150
▁have	-151
ess	-152
ould	-153
ity	-154
▁or	-155
em	-156
▁by	-157
th	-158
os	-159
ant	-160
▁from	-161
ive	-162
▁al	-163
▁E	-164
el	-165
▁su	-166
art	-167
oc	-168
▁sh	-169
▁this	-170
nt	-171
▁O	-172
qu	-173
ight	-174
pe	-175
ust	-176
▁le	-177
▁"	-178
ies	-179
▁J	-180
end	-181
▁sa	-182
▁ch	-183
out	-184
▁ab	-185
all	-186
ie	-187
ack	-188
red	-189
▁has	-190
ally	-191
▁pl	-192
▁go	-193
ard	-194
▁his	-195
iv	-196
ome	-197
gh	-198
ost	-199
ap	-200
ear	-201
our	-202
▁tr	-203
ast	-204
▁j	-205
ak	-206
▁U	-207
ud	-208
▁do	-209
▁they	-210
▁but	-211
▁wor	-212
▁said	-213
▁can	-214
rou	-215
▁will	-216
ge	-217
▁whe	-218
ich	-219
▁k	-220
ok	-221
▁all	-222
▁who	-223
ide	-224
▁int	-225
ame	-226
ans	-227
ther	-228
▁out	-229
ial	-230
▁their	-231
▁Th	-232
ff	-233
ong	-234
▁In	-235
ice	-236
ect	-237
pl	-238
ure	-239
pt	-240
▁more	-241
one	-242
age	-243
ions	-244
ike	-245
act	-246
▁up	-247
▁me	-248
ous	-249
▁ad	-250
▁K	-251
ine	-252
▁about	-253
ated	-254
ra	-255
ber	-256
▁one	-257
▁were	-258
▁so	-259
▁us	-260
ime	-261
og	-262
▁St	-263
ep	-264
▁had	-265
are	-266
ia	-267
ub	-268
cc	-269
▁would	-270
▁cl	-271
▁im	-272
▁which	-273
ind	-274
ake	-275
ue	-276
▁cont	-277
▁ag	-278
very	-279
iz	-280
▁te	-281
▁off	-282
▁comp	-283
▁been	-284
▁un	-285
so	-286
▁en	-287
per	-288
ign	-289
au	-290
▁year	-291
ace	-292
ary	-293
ip	-294
ew	-295
▁like	-296
ven	-297
ere	-298
ook	-299
▁inc	-300
ays	-301
▁It	-302
▁pe	-303
▁man	-304
..	-305
ry	-306
ose	-307
▁res	-308
▁per	-309
ite	-310
able	-311
▁sp	-312
ord	-313
ass	-314
mer	-315
▁other	-316
ire	-317
▁Y	-318
▁some	-319
ile	-320
ople	-321
ence	-322
ib	-323
ks	-324
▁over	-325
ations	-326
▁there	-327
ical	-328
▁dis	-329
ress	-330
▁new	-331
▁Ch	-332
ult	-333
▁also	-334
▁than	-335
int	-336
▁ar	-337
own	-338
▁bec	-339
▁them	-340
ough	-341
ount	-342
ance	-343
ru	-344
▁app	-345
port	-346
▁part	-347
▁your	-348
ail	-349
▁when	-350
▁what	-351
ree	-352
▁people	-353
▁V	-354
ond	-355
fter	-356
▁sc	-357
orm	-358
▁qu	-359
ase	-360
av	-361
▁just	-362
▁any	-363
▁its	-364
ach	-365
▁time	-366
▁kn	-367
▁her	-368
▁rec	-369
lic	-370
.”	-371
ens	-372
▁He	-373
▁my	-374
▁get	-375
reat	-376
▁if	-377
ian	-378
▁work	-379
▁into	-380
▁tw	-381
irst	-382
ound	-383
vel	-384
▁no	-385
ction	-386
du	-387
ings	-388
ory	-389
▁our	-390
▁-	-391
ident	-392
ick	-393
ors	-394
ition	-395
ob	-396
▁pre	-397
ove	-398
▁play	-399
ang	-400
ink	-401
wn	-402
ause	-403
ade	-404
itt	-405
hing	-406
ates	-407
ark	-408
▁ro	-409
▁pol	-410
amp	-411
▁she	-412
,”	-413
vers	-414
▁co	-415
▁after	-416
▁first	-417
▁could	-418
▁how	-419
ne	-420
▁acc	-421
ious	-422
nder	-423
▁him	-424
aw	-425
ild	-426
ons	-427
▁po	-428
▁We	-429
▁fe	-430
▁att	-431
▁only	-432
ict	-433
▁But	-434
hed	-435
▁pr	-436
▁two	-437
ov	-438
▁comm	-439
ish	-440
▁spe	-441
form	-442
▁act	-443
▁ser	-444
▁bl	-445
▁Wh	-446
we	-447
ft	-448
▁This	-449
▁dec	-450
▁bet	-451
."	-452
ning	-453
▁back	-454
▁–	-455
▁most	-456
te	-457
ces	-458
▁And	-459
ood	-460
ck	-461
oy	-462
▁am	-463
▁did	-464
rough	-465
iff	-466
▁—	-467
round	-468
ater	-469
▁again	-470
day	-471
ise	-472
▁want	-473
ual	-474
▁des	-475
▁under	-476
▁cons	-477
sel	-478
▁$	-479
ull	-480
▁because	-481
rit	-482
▁now	-483
lud	-484
▁years	-485
ublic	-486
ents	-487
▁need	-488
man	-489
tern	-490
▁even	-491
▁inv	-492
iss	-493
ec	-494
▁As	-495
▁know	-496
▁Un	-497
▁see	-498
▁add	-499
ments	-500
ced	-501
old	-502
▁ind	-503
▁sec	-504
,"	-505
fore	-506
▁every	-507
uch	-508
urn	-509
▁supp	-510
▁make	-511
pect	-512
▁Tr	-513
▁em	-514
▁these	-515
ock	-516
oll	-517
▁where	-518
ject	-519
vern	-520
ational	-521
xt	-522
▁bu	-523
▁look	-524
ump	-525
▁don	-526
oss	-527
▁[	-528
▁way	-529
▁ev	-530
ating	-531
▁right	-532
▁being	-533
▁rem	-534
ily	-535
▁may	-536
ng	-537
row	-538
▁many	-539
lect	-540
▁then	-541
iew	-542
ason	-543
▁def	-544
▁diff	-545
▁call	-546
▁rel	-547
▁includ	-548
ont	-549
▁think	-550
aking	-551
ased	-552
meric	-553
ied	-554
les	-555
▁reg	-556
▁imp	-557
▁through	-558
ited	-559
rib	-560
▁last	-561
▁say	-562
ath	-563
▁pres	-564
▁should	-565
▁sy	-566
▁fl	-567
).	-568
The	-569
uring	-570
▁those	-571
▁very	-572
other	-573
▁show	-574
▁much	-575
▁state	-576
ities	-577
ific	-578
ower	-579
▁br	-580
ative	-581
hen	-582
▁Re	-583
▁New	-584
arg	-585
▁well	-586
ty	-587
oth	-588
▁count	-589
ved	-590
▁ph	-591
ell	-592
▁does	-593
als	-594
und	-595
▁end	-596
▁Americ	-597
ting	-598
▁own	-599
arly	-600
▁down	-601
ics	-602
▁bel	-603
▁use	-604
▁ass	-605
ange	-606
ters	-607
▁long	-608
ince	-609
▁before	-610
▁govern	-611
ward	-612
▁mon	-613
gr	-614
omet	-615
▁report	-616
▁start	-617
ues	-618
▁ke	-619
ible	-620
up	-621
ts	-622
▁team	-623
▁fin	-624
▁made	-625
ble	-626
ife	-627
olog	-628
▁Al	-629
oun	-630
▁such	-631
ener	-632
ren	-633
ek	-634
erson	-635
),	-636
▁going	-637
▁sm	-638
▁hel	-639
▁You	-640
▁world	-641
ix	-642
ful	-643
ism	-644
ility	-645
ually	-646
▁stud	-647
ists	-648
▁good	-649
▁ac	-650
tain	-651
com	-652
▁sur	-653
▁against	-654
▁sub	-655
▁game	-656
...	-657
▁eff	-658
▁set	-659
ork	-660
its	-661
▁gu	-662
▁point	-663
▁ent	-664
ys	-665
▁If	-666
ars	-667
gan	-668
▁still	-669
stem	-670
illion	-671
▁help	-672
ier	-673
▁while	-674
▁lead	-675
roup	-676
▁min	-677
▁says	-678
ving	-679
ween	-680
ax	-681
alk	-682
imes	-683
▁gr	-684
ank	-685
▁produ	-686
cy	-687
ms	-688
▁ob	-689
▁inst	-690
▁inter	-691
▁str	-692
▁conf	-693
io	-694
▁sim	-695
▁take	-696
cess	-697
▁col	-698
▁For	-699
self	-700
▁offic	-701
ures	-702
▁same	-703
▁though	-704
▁cr	-705
arch	-706
▁between	-707
ollow	-708
uss	-709
▁differe	-710
▁Ar	-711
ool	-712
▁prov	-713
▁disc	-714
land	-715
▁ed	-716
▁op	-717
ever	-718
▁high	-719
ution	-720
hes	-721
▁law	-722
▁De	-723
▁government	-724
▁sign	-725
▁num	-726
read	-727
air	-728
▁An	-729
ah	-730
ner	-731
way	-732
gg	-733
hip	-734
▁They	-735
ames	-736
led	-737
any	-738
ros	-739
cent	-740
atch	-741
▁ter	-742
▁Le	-743
▁Com	-744
▁somet	-745
▁ref	-746
velop	-747
▁Sh	-748
▁run	-749
▁ins	-750
▁trans	-751
▁Is	-752
▁found	-753
▁three	-754
▁around	-755
▁here	-756
ives	-757
▁med	-758
▁mem	-759
▁Trump	-760
ather	-761
--	-762
ave	-763
ouse	-764
▁real	-765
▁used	-766
oot	-767
▁exp	-768
▁Se	-769
▁system	-770
▁really	-771
az	-772
cept	-773
ves	-774
▁support	-775
▁group	-776
▁That	-777
cer	-778
▁cour	-779
▁mod	-780
ci	-781
con	-782
▁Cl	-783
ets	-784
▁public	-785
ale	-786
ins	-787
▁ret	-788
▁hand	-789
▁There	-790
ying	-791
▁spec	-792
▁great	-793
.[	-794
▁car	-795
ense	-796
▁sl	-797
pr	-798
▁ext	-799
ph	-800
▁cur	-801
▁fam	-802
irect	-803
alth	-804
▁wom	-805
▁happ	-806
ton	-807
▁exper	-808
▁fr	-809
▁fact	-810
▁cap	-811
▁both	-812
▁day	-813
▁find	-814
▁read	-815
▁rep	-816
ular	-817
ices	-818
ines	-819
oh	-820
▁det	-821
uth	-822
ered	-823
▁during	-824
▁cre	-825
▁big	-826
▁month	-827
▁'	-828
▁develop	-829
▁told	-830
ision	-831
akes	-832
▁iss	-833
▁So	-834
min	-835
▁On	-836
▁person	-837
ivers	-838
▁since	-839
▁week	-840
▁follow	-841
ared	-842
ically	-843
med	-844
▁few	-845
ording	-846
▁war	-847
ages	-848
orth	-849
▁cent	-850
att	-851
▁polit	-852
▁leg	-853
▁Ad	-854
aj	-855
get	-856
ash	-857
ef	-858
▁lot	-859
▁expl	-860
▁Fr	-861
▁belie	-862
▁gener	-863
▁too	-864
▁opp	-865
▁contin	-866
anc	-867
rent	-868
ric	-869
▁fil	-870
▁prot	-871
▁At	-872
der	-873
▁requ	-874
bers	-875
iet	-876
ata	-877
▁put	-878
▁resp	-879
▁cle	-880
▁Pro	-881
ention	-882
▁How	-883
▁another	-884
▁‘	-885
ex	-886
ness	-887
chool	-888
ized	-889
▁something	-890
▁loc	-891
▁different	-892
▁inf	-893
▁invest	-894
▁cor	-895
ute	-896
▁soc	-897
▁art	-898
▁commun	-899
▁plan	-900
▁power	-901
uc	-902
▁vot	-903
▁pass	-904
▁rele	-905
▁head	-906
▁far	-907
ience	-908
▁camp	-909
▁life	-910
ned	-911
arl	-912
the	-913
▁things	-914
ody	-915
▁Rep	-916
▁che	-917
thing	-918
▁bo	-919
▁poss	-920
ik	-921
ross	-922
erest	-923
▁met	-924
arge	-925
▁ask	-926
view	-927
iness	-928
▁might	-929
ants	-930
▁dep	-931
▁child	-932
▁next	-933
▁each	-934
▁never	-935
ret	-936
ient	-937
ize	-938
▁bus	-939
▁mark	-940
▁US	-941
▁second	-942
▁adv	-943
▁quest	-944
ield	-945
▁come	-946
▁dem	-947
▁got	-948
▁best	-949
▁open	-950
▁allow	-951
ital	-952
▁Bl	-953
son	-954
▁.	-955
ee	-956
ittle	-957
▁percent	-958
▁post	-959
▁seem	-960
▁feel	-961
ple	-962
gram	-963
▁home	-964
▁pri	-965
▁direct	-966
rat	-967
ten	-968
ired	-969
▁dist	-970
▁wr	-971
▁incre	-972
ug	-973
cl	-974
erv	-975
▁contro	-976
orn	-977
osed	-978
▁hard	-979
▁result	-980
▁million	-981
▁care	-982
▁import	-983
ately	-984
▁including	-985
▁comple	-986
▁place	-987
less	-988
▁av	-989
conom	-990
chn	-991
▁without	-992
▁Ind	-993
▁She	-994
▁inform	-995
ama	-996
▁hum	-997
▁ide	-998
▁top	-999
▁proble	-1000
▁build	-1001
▁country	-1002
▁number	-1003
aim	-1004
oney	-1005
gy	-1006
▁gl	-1007
▁Z	-1008
▁four	-1009
▁stand	-1010
riend	-1011
ral	-1012
ably	-1013
▁recent	-1014
▁better	-1015
ished	-1016
co	-1017
▁let	-1018
▁season	-1019
▁When	-1020
▁el	-1021
ways	-1022
▁partic	-1023
▁mov	-1024
▁tri	-1025
▁interest	-1026
ration	-1027
▁less	-1028
▁turn	-1029
▁little	-1030
We	-1031
▁appro	-1032
▁beh	-1033
line	-1034
▁called	-1035
ised	-1036
▁Q	-1037
▁mil	-1038
▁bro	-1039
ract	-1040
▁Be	-1041
▁case	-1042
▁Ph	-1043
▁ann	-1044
▁dr	-1045
app	-1046
ency	-1047
▁attack	-1048
▁rest	-1049
▁pop	-1050
▁left	-1051
▁move	-1052
ling	-1053
▁keep	-1054
leg	-1055
▁didn	-1056
▁full	-1057
ina	-1058
ering	-1059
▁serv	-1060
▁main	-1061
▁What	-1062
ajor	-1063
▁fun	-1064
ode	-1065
▁prev	-1066
inal	-1067
▁program	-1068
ted	-1069
▁using	-1070
▁test	-1071
▁pay	-1072
uro	-1073
▁police	-1074
me	-1075
▁American	-1076
ature	-1077
▁effect	-1078
▁news	-1079
▁val	-1080
▁econom	-1081
be	-1082
▁pos	-1083
▁win	-1084
▁data	-1085
▁Ob	-1086
▁form	-1087
iving	-1088
ready	-1089
ains	-1090
ined	-1091
▁list	-1092
▁char	-1093
▁small	-1094
▁school	-1095
▁level	-1096
ology	-1097
ploy	-1098
uck	-1099
ided	-1100
to	-1101
▁Go	-1102
ger	-1103
▁women	-1104
▁eas	-1105
▁process	-1106
ird	-1107
▁president	-1108
▁change	-1109
▁Can	-1110
▁company	-1111
▁prom	-1112
▁current	-1113
nce	-1114
▁rece	-1115
▁hist	-1116
▁dri	-1117
reen	-1118
▁United	-1119
__	-1120
ians	-1121
used	-1122
▁already	-1123
▁Chr	-1124
ohn	-1125
iver	-1126
▁ty	-1127
▁bre	-1128
▁All	-1129
▁why	-1130
▁expect	-1131
ruct	-1132
rap	-1133
▁unt	-1134
▁business	-1135
▁official	-1136
▁money	-1137
▁always	-1138
▁later	-1139
▁techn	-1140
▁sol	-1141
▁mat	-1142
▁project	-1143
▁job	-1144
▁book	-1145
aign	-1146
wit	-1147
▁--	-1148
▁class	-1149
▁claim	-1150
▁thing	-1151
▁Sp	-1152
iversity	-1153
stand	-1154
▁organ	-1155
It	-1156
▁design	-1157
ards	-1158
ases	-1159
▁talk	-1160
aff	-1161
▁information	-1162
▁prof	-1163
▁story	-1164
▁able	-1165
▁major	-1166
▁rese	-1167
▁health	-1168
lection	-1169
▁chang	-1170
▁past	-1171
urs	-1172
▁free	-1173
ertain	-1174
▁vis	-1175
iven	-1176
▁One	-1177
ead	-1178
▁city	-1179
▁Mr	-1180
▁Pres	-1181
▁away	-1182
outh	-1183
▁oper	-1184
here	-1185
▁Pl	-1186
ior	-1187
▁Sc	-1188
ption	-1189
▁happen	-1190
▁important	-1191
▁To	-1192
ural	-1193
▁must	-1194
▁John	-1195
uthor	-1196
urity	-1197
▁doesn	-1198
ured	-1199
ury	-1200
ample	-1201
acy	-1202
▁Mar	-1203
ending	-1204
▁kill	-1205
▁least	-1206
▁edit	-1207
▁old	-1208
▁grow	-1209
▁sk	-1210
▁est	-1211
▁pat	-1212
ission	-1213
▁var	-1214
▁cost	-1215
▁Con	-1216
ney	-1217
▁campaign	-1218
▁hop	-1219
els	-1220
ides	-1221
▁days	-1222
▁tell	-1223
▁Br	-1224
ott	-1225
▁men	-1226
▁came	-1227
ained	-1228
ider	-1229
▁const	-1230
▁stre	-1231
▁aff	-1232
▁Republic	-1233
▁enough	-1234
▁making	-1235
ox	-1236
ccess	-1237
▁view	-1238
side	-1239
▁tax	-1240
▁kind	-1241
▁mar	-1242
▁family	-1243
▁Or	-1244
▁large	-1245
ern	-1246
▁record	-1247
▁elect	-1248
▁friend	-1249
▁Comm	-1250
eral	-1251
▁polic	-1252
sc	-1253
ley	-1254
▁sit	-1255
ush	-1256
oad	-1257
ising	-1258
▁vide	-1259
pped	-1260
ional	-1261
▁Mc	-1262
▁until	-1263
▁political	-1264
ror	-1265
▁No	-1266
▁deal	-1267
ality	-1268
ator	-1269
ified	-1270
ived	-1271
▁working	-1272
arent	-1273
alf	-1274
ries	-1275
augh	-1276
ued	-1277
▁Dem	-1278
▁deb	-1279
▁took	-1280
▁line	-1281
▁ve	-1282
tt	-1283
ister	-1284
▁air	-1285
▁May	-1286
aining	-1287
▁fore	-1288
▁Russ	-1289
aps	-1290
bs	-1291
ocrat	-1292
▁intern	-1293
ony	-1294
▁del	-1295
▁es	-1296
▁become	-1297
▁actually	-1298
iol	-1299
ane	-1300
▁President	-1301
▁fund	-1302
▁Sy	-1303
▁mean	-1304
▁former	-1305
work	-1306
ware	-1307
ember	-1308
▁Euro	-1309
▁often	-1310
▁according	-1311
year	-1312
▁won	-1313
▁give	-1314
▁With	-1315
▁ever	-1316
▁=	-1317
▁games	-1318
most	-1319
by	-1320
aring	-1321
eng	-1322
oint	-1323
ann	-1324
▁return	-1325
▁human	-1326
▁word	-1327
ison	-1328
▁Am	-1329
▁order	-1330
▁times	-1331
▁bas	-1332
ization	-1333
▁name	-1334
iber	-1335
gin	-1336
uture	-1337
wh	-1338
▁sever	-1339
▁dev	-1340
▁bit	-1341
ither	-1342
ron	-1343
▁market	-1344
icle	-1345
▁perform	-1346
▁fac	-1347
▁Col	-1348
▁night	-1349
▁sing	-1350
iqu	-1351
▁charac	-1352
▁doing	-1353
▁appear	-1354
raft	-1355
▁lear	-1356
▁ra	-1357
▁After	-1358
▁today	-1359
▁players	-1360
aken	-1361
idd	-1362
ched	-1363
▁media	-1364
iam	-1365
▁seen	-1366
for	-1367
▁early	-1368
▁event	-1369
▁having	-1370
▁la	-1371
▁crit	-1372
▁pot	-1373
▁whether	-1374
▁social	-1375
▁children	-1376
Th	-1377
mber	-1378
▁Te	-1379
▁Obama	-1380
▁several	-1381
rop	-1382
▁Im	-1383
▁meet	-1384
▁five	-1385
artment	-1386
▁sure	-1387
▁went	-1388
▁young	-1389
idence	-1390
▁press	-1391
▁control	-1392
▁likely	-1393
ium	-1394
▁milit	-1395
▁prop	-1396
iously	-1397
ories	-1398
▁members	-1399
▁equ	-1400
▁question	-1401
ene	-1402
▁York	-1403
une	-1404
let	-1405
ands	-1406
▁Europe	-1407
▁occ	-1408
sh	-1409
▁water	-1410
▁certain	-1411
▁eng	-1412
ots	-1413
enn	-1414
▁vers	-1415
▁arg	-1416
▁done	-1417
▁,	-1418
▁example	-1419
▁along	-1420
▁invol	-1421
▁success	-1422
▁side	-1423
▁short	-1424
br	-1425
▁States	-1426
vert	-1427
ER	-1428
▁Not	-1429
ended	-1430
▁ant	-1431
ball	-1432
▁months	-1433
ential	-1434
ially	-1435
▁hour	-1436
empt	-1437
▁Ex	-1438
ubl	-1439
ague	-1440
▁Co	-1441
▁fight	-1442
ats	-1443
▁sex	-1444
▁within	-1445
▁desc	-1446
imate	-1447
▁investig	-1448
▁course	-1449
▁future	-1450
▁State	-1451
▁among	-1452
▁once	-1453
lf	-1454
rew	-1455
iting	-1456
urch	-1457
ortun	-1458
ster	-1459
ulation	-1460
▁activ	-1461
▁]	-1462
▁concer	-1463
uff	-1464
▁cho	-1465
nect	-1466
▁understand	-1467
▁possible	-1468
ones	-1469
▁means	-1470
ggest	-1471
▁priv	-1472
▁problem	-1473
▁Pol	-1474
▁viol	-1475
▁#	-1476
▁avail	-1477
▁product	-1478
▁author	-1479
ourn	-1480
▁thought	-1481
▁However	-1482
gress	-1483
itive	-1484
▁known	-1485
▁local	-1486
▁across	-1487
▁protect	-1488
▁yet	-1489
▁community	-1490
▁hold	-1491
▁i	-1492
oci	-1493
ald	-1494
▁non	-1495
ivid	-1496
▁writ	-1497
▁fail	-1498
▁House	-1499
▁suggest	-1500
▁reason	-1501
▁Christ	-1502
▁makes	-1503
ler	-1504
▁orig	-1505
book	-1506
▁/	-1507
verage	-1508
ederal	-1509
▁asked	-1510
inc	-1511
▁reported	-1512
por	-1513
ensive	-1514
▁video	-1515
orld	-1516
arm	-1517
▁Sen	-1518
back	-1519
▁&	-1520
▁mus	-1521
aged	-1522
▁given	-1523
▁While	-1524
not	-1525
▁announ	-1526
▁believe	-1527
▁others	-1528
▁strong	-1529
▁prob	-1530
▁ben	-1531
▁getting	-1532
▁Fl	-1533
▁Democrat	-1534
▁University	-1535
▁light	-1536
▁Min	-1537
ances	-1538
▁Pr	-1539
ober	-1540
▁cut	-1541
▁ident	-1542
ored	-1543
▁sent	-1544
▁X	-1545
itions	-1546
iron	-1547
iety	-1548
▁ca	-1549
▁lim	-1550
▁sour	-1551
▁Don	-1552
▁creat	-1553
urther	-1554
▁cond	-1555
lement	-1556
ashing	-1557
my	-1558
▁net	-1559
rest	-1560
▁saf	-1561
▁national	-1562
▁Cent	-1563
▁started	-1564
▁available	-1565
▁close	-1566
▁indust	-1567
▁land	-1568
▁issue	-1569
▁death	-1570
▁hig	-1571
▁based	-1572
▁love	-1573
▁low	-1574
▁employ	-1575
▁account	-1576
▁ago	-1577
▁history	-1578
▁following	-1579
aster	-1580
▁mom	-1581
▁America	-1582
▁par	-1583
use	-1584
▁series	-1585
orts	-1586
▁party	-1587
▁comes	-1588
selves	-1589
▁trying	-1590
uly	-1591
----	-1592
▁almost	-1593
▁toget	-1594
▁together	-1595
hers	-1596
▁idea	-1597
.,	-1598
▁foc	-1599
utes	-1600
▁access	-1601
ability	-1602
ief	-1603
▁Sec	-1604
ument	-1605
ination	-1606
▁isn	-1607
ails	-1608
reed	-1609
itional	-1610
▁added	-1611
▁trad	-1612
▁Canad	-1613
resent	-1614
of	-1615
▁film	-1616
ilar	-1617
▁clear	-1618
▁impro	-1619
▁experience	-1620
erence	-1621
though	-1622
▁pract	-1623
▁Gr	-1624
▁Ne	-1625
▁half	-1626
ged	-1627
ustom	-1628
▁rul	-1629
▁Bro	-1630
pro	-1631
witter	-1632
▁...	-1633
▁six	-1634
▁live	-1635
▁looking	-1636
rict	-1637
unch	-1638
ograp	-1639
ream	-1640
▁fav	-1641
ien	-1642
ring	-1643
▁Eng	-1644
af	-1645
minist	-1646
▁anything	-1647
▁area	-1648
▁complete	-1649
▁Man	-1650
▁saying	-1651
ividual	-1652
erman	-1653
inton	-1654
▁anal	-1655
nes	-1656
rael	-1657
▁ris	-1658
▁miss	-1659
▁bill	-1660
▁North	-1661
ai	-1662
▁Su	-1663
▁present	-1664
▁vict	-1665
▁bad	-1666
▁court	-1667
rug	-1668
▁taken	-1669
cially	-1670
aid	-1671
raw	-1672
▁phot	-1673
eb	-1674
▁War	-1675
▁Car	-1676
uge	-1677
ows	-1678
▁Now	-1679
▁compet	-1680
ators	-1681
▁behind	-1682
ert	-1683
▁mor	-1684
AT	-1685
▁aut	-1686
▁try	-1687
▁entire	-1688
▁near	-1689
▁Bar	-1690
▁tre	-1691
▁Just	-1692
osp	-1693
▁security	-1694
▁Af	-1695
wards	-1696
▁military	-1697
▁Ab	-1698
▁face	-1699
▁mult	-1700
▁proper	-1701
▁er	-1702
▁Dep	-1703
▁Brit	-1704
play	-1705
▁discuss	-1706
▁threat	-1707
▁rather	-1708
sy	-1709
▁z	-1710
▁tot	-1711
▁publ	-1712
▁Cal	-1713
▁single	-1714
▁quick	-1715
▁study	-1716
▁individual	-1717
▁policy	-1718
▁fall	-1719
▁Inst	-1720
aper	-1721
▁App	-1722
▁wanted	-1723
▁mess	-1724
▁National	-1725
▁Ed	-1726
▁mind	-1727
▁Clinton	-1728
irc	-1729
▁someone	-1730
lling	-1731
▁His	-1732
ales	-1733
▁food	-1734
▁Res	-1735
▁sum	-1736
ids	-1737
▁By	-1738
atic	-1739
off	-1740
▁Israel	-1741
▁Har	-1742
▁black	-1743
▁special	-1744
▁cult	-1745
▁compan	-1746
▁bring	-1747
▁redu	-1748
▁Aust	-1749
▁Dav	-1750
▁player	-1751
▁These	-1752
▁attempt	-1753
▁World	-1754
▁key	-1755
▁comb	-1756
▁My	-1757
▁Some	-1758
▁City	-1759
par	-1760
ply	-1761
▁taking	-1762
▁foot	-1763
▁pret	-1764
ify	-1765
viron	-1766
▁Me	-1767
ashington	-1768
elt	-1769
▁front	-1770
rote	-1771
▁probably	-1772
▁research	-1773
▁cou	-1774
▁body	-1775
▁else	-1776
▁space	-1777
▁Ge	-1778
ches	-1779
olution	-1780
▁jo	-1781
▁coming	-1782
▁nothing	-1783
▁Part	-1784
amed	-1785
icult	-1786
▁Gu	-1787
▁connect	-1788
▁points	-1789
//	-1790
.)	-1791
▁ear	-1792
ming	-1793
▁sw	-1794
cing	-1795
▁benef	-1796
▁however	-1797
go	-1798
▁describ	-1799
reme	-1800
▁decision	-1801
ps	-1802
▁Washington	-1803
▁similar	-1804
▁feat	-1805
▁coun	-1806
▁sus	-1807
▁Jan	-1808
IN	-1809
▁signific	-1810
irl	-1811
▁either	-1812
ully	-1813
▁mass	-1814
aces	-1815
▁exist	-1816
▁Do	-1817
▁imm	-1818
▁targ	-1819
▁rights	-1820
ault	-1821
▁conv	-1822
▁house	-1823
▁enc	-1824
▁service	-1825
▁create	-1826
hy	-1827
asing	-1828
▁chall	-1829
▁ban	-1830
▁wrote	-1831
▁hit	-1832
▁further	-1833
ana	-1834
▁doc	-1835
▁wa	-1836
▁:	-1837
▁third	-1838
▁fig	-1839
▁stop	-1840
▁South	-1841
▁pick	-1842
ung	-1843
▁issues	-1844
▁compl	-1845
over	-1846
▁fire	-1847
▁repl	-1848
▁field	-1849
▁step	-1850
mb	-1851
▁Med	-1852
▁Acc	-1853
▁cand	-1854
▁begin	-1855
▁relations	-1856
pping	-1857
▁federal	-1858
ively	-1859
now	-1860
▁companies	-1861
▁super	-1862
yn	-1863
ON	-1864
▁whole	-1865
sw	-1866
▁seems	-1867
ently	-1868
▁exec	-1869
ried	-1870
pite	-1871
▁meas	-1872
iday	-1873
pecially	-1874
itted	-1875
▁everything	-1876
▁tra	-1877
▁watch	-1878
▁Ass	-1879
▁due	-1880
▁leaders	-1881
▁custom	-1882
ape	-1883
▁officials	-1884
▁Intern	-1885
▁states	-1886
attle	-1887
aul	-1888
▁lab	-1889
▁released	-1890
▁room	-1891
ilt	-1892
▁role	-1893
▁stri	-1894
▁sound	-1895
▁ey	-1896
ivil	-1897
▁students	-1898
uation	-1899
oon	-1900
▁infl	-1901
▁Ir	-1902
▁self	-1903
ibility	-1904
▁dam	-1905
head	-1906
://	-1907
▁statement	-1908
▁China	-1909
▁opt	-1910
amer	-1911
▁Dr	-1912
rodu	-1913
▁final	-1914
▁began	-1915
▁position	-1916
obal	-1917
ender	-1918
ery	-1919
▁outside	-1920
▁matter	-1921
▁ener	-1922
▁character	-1923
▁dou	-1924
arlier	-1925
ades	-1926
IS	-1927
vironment	-1928
▁provide	-1929
▁break	-1930
▁treat	-1931
▁development	-1932
▁himself	-1933
▁represent	-1934
▁gun	-1935
▁action	-1936
sec	-1937
like	-1938
▁init	-1939
▁continue	-1940
▁office	-1941
▁stat	-1942
▁amount	-1943
▁hours	-1944
▁Will	-1945
▁above	-1946
▁itself	-1947
▁themselves	-1948
▁German	-1949
▁countries	-1950
▁Face	-1951
▁address	-1952
▁neg	-1953
iod	-1954
▁larg	-1955
aced	-1956
▁became	-1957
▁general	-1958
lim	-1959
▁wasn	-1960
▁specific	-1961
arter	-1962
lish	-1963
▁simply	-1964
▁interview	-1965
▁Twitter	-1966
▁News	-1967
ww	-1968
ask	-1969
▁significant	-1970
▁true	-1971
▁administ	-1972
▁running	-1973
umb	-1974
▁ground	-1975
ogn	-1976
▁profess	-1977
ili	-1978
▁difficult	-1979
▁En	-1980
▁needs	-1981
reg	-1982
▁bar	-1983
▁version	-1984
▁rad	-1985
▁agree	-1986
▁evidence	-1987
▁ball	-1988
▁cop	-1989
eks	-1990
oid	-1991
ogle	-1992
▁drug	-1993
▁lat	-1994
▁inj	-1995
▁building	-1996
▁appe	-1997
AN	-1998
▁groups	-1999
▁everyone	-2000
▁shows	-2001
▁red	-2002
▁woman	-2003
angu	-2004
▁typ	-2005
BC	-2006
▁Ke	-2007
▁respons	-2008
▁needed	-2009
iddle	-2010
▁music	-2011
▁below	-2012
▁Mus	-2013
▁common	-2014
▁dom	-2015
lam	-2016
▁Pe	-2017
▁release	-2018
ournal	-2019
▁tem	-2020
AR	-2021
▁exc	-2022
▁dest	-2023
▁West	-2024
**	-2025
right	-2026
▁saw	-2027
▁include	-2028
▁White	-2029
▁pretty	-2030
▁played	-2031
▁candid	-2032
ribut	-2033
▁deep	-2034
ift	-2035
▁Facebook	-2036
▁industry	-2037
▁Ste	-2038
▁quite	-2039
▁mot	-2040
ser	-2041
▁playing	-2042
isc	-2043
atur	-2044
▁alleg	-2045
▁ap	-2046
▁charg	-2047
▁legal	-2048
▁energy	-2049
ote	-2050
▁sense	-2051
ival	-2052
body	-2053
▁)	-2054
▁late	-2055
▁friends	-2056
▁Oct	-2057
▁white	-2058
▁Mich	-2059
▁Cong	-2060
▁gen	-2061
▁billion	-2062
▁mag	-2063
yle	-2064
▁lost	-2065
▁phys	-2066
▁Per	-2067
▁instead	-2068
▁especially	-2069
osing	-2070
▁abs	-2071
▁host	-2072
▁hom	-2073
▁forward	-2074
▁recently	-2075
oring	-2076
▁vote	-2077
▁anim	-2078
▁election	-2079
bo	-2080
OR	-2081
where	-2082
lev	-2083
ager	-2084
▁weeks	-2085
▁value	-2086
istic	-2087
▁ple	-2088
▁track	-2089
▁Sept	-2090
▁March	-2091
▁jud	-2092
▁Sm	-2093
▁opportun	-2094
time	-2095
irt	-2096
▁changes	-2097
epend	-2098
▁suff	-2099
▁More	-2100
▁Republican	-2101
▁pain	-2102
▁object	-2103
▁lo	-2104
▁ep	-2105
medi	-2106
▁period	-2107
▁deter	-2108
▁site	-2109
▁longer	-2110
▁soon	-2111
▁shoot	-2112
ij	-2113
▁accept	-2114
▁economic	-2115
▁hope	-2116
▁moment	-2117
▁Google	-2118
▁decl	-2119
ript	-2120
irm	-2121
▁Here	-2122
itting	-2123
▁check	-2124
ached	-2125
▁Department	-2126
▁pie	-2127
▁According	-2128
▁consum	-2129
ights	-2130
oke	-2131
▁block	-2132
▁Syri	-2133
duct	-2134
hod	-2135
▁share	-2136
▁wrong	-2137
ancial	-2138
▁focus	-2139
ental	-2140
ners	-2141
▁cred	-2142
▁Aug	-2143
▁El	-2144
▁Em	-2145
▁tit	-2146
▁|	-2147
▁htt	-2148
▁potential	-2149
den	-2150
▁relig	-2151
▁webs	-2152
arc	-2153
oe	-2154
▁June	-2155
▁online	-2156
▁educ	-2157
▁works	-2158
▁held	-2159
▁consider	-2160
▁higher	-2161
lege	-2162
▁circ	-2163
ique	-2164
iding	-2165
▁reve	-2166
alt	-2167
ES	-2168
▁led	-2169
▁parent	-2170
cial	-2171
overed	-2172
AS	-2173
ularly	-2174
onse	-2175
ns	-2176
▁stay	-2177
▁Red	-2178
▁stru	-2179
lt	-2180
fer	-2181
▁walk	-2182
▁Off	-2183
▁pred	-2184
key	-2185
hel	-2186
▁laws	-2187
▁Act	-2188
▁review	-2189
▁ce	-2190
▁words	-2191
▁contract	-2192
fect	-2193
lear	-2194
▁risk	-2195
▁article	-2196
val	-2197
▁results	-2198
▁di	-2199
▁code	-2200
▁function	-2201
▁sold	-2202
▁services	-2203
ients	-2204
▁Apr	-2205
cil	-2206
▁wind	-2207
▁July	-2208
▁aud	-2209
ees	-2210
▁rev	-2211
▁ste	-2212
uary	-2213
▁total	-2214
▁applic	-2215
asons	-2216
▁minutes	-2217
▁favor	-2218
▁personal	-2219
aut	-2220
▁Mond	-2221
▁anyone	-2222
omm	-2223
ham	-2224
ilities	-2225
itution	-2226
▁Congress	-2227
▁popular	-2228
ole	-2229
▁upd	-2230
▁rate	-2231
▁age	-2232
▁answ	-2233
anger	-2234
▁prim	-2235
▁den	-2236
▁earlier	-2237
haps	-2238
▁Austral	-2239
▁expected	-2240
▁technology	-2241
apan	-2242
▁target	-2243
▁Hill	-2244
▁express	-2245
▁dead	-2246
aging	-2247
▁created	-2248
ule	-2249
▁Des	-2250
▁goal	-2251
▁comput	-2252
▁environment	-2253
put	-2254
▁respect	-2255
▁surpr	-2256
▁necess	-2257
▁{	-2258
ateg	-2259
▁comment	-2260
▁Friday	-2261
____	-2262
▁problems	-2263
▁received	-2264
uel	-2265
isl	-2266
ude	-2267
▁announced	-2268
▁hy	-2269
▁base	-2270
▁private	-2271
▁port	-2272
▁scient	-2273
▁God	-2274
ends	-2275
▁ways	-2276
▁anti	-2277
▁pack	-2278
▁increase	-2279
reet	-2280
iter	-2281
▁questions	-2282
▁easy	-2283
▁shot	-2284
rel	-2285
ittee	-2286
▁vol	-2287
▁force	-2288
▁impact	-2289
▁Cont	-2290
▁@	-2291
iple	-2292
na	-2293
atives	-2294
▁Cour	-2295
▁cannot	-2296
▁langu	-2297
action	-2298
▁Ag	-2299
▁Tues	-2300
▁April	-2301
eter	-2302
▁pur	-2303
aving	-2304
▁involved	-2305
▁Monday	-2306
ples	-2307
hern	-2308
▁+	-2309
aterial	-2310
▁execut	-2311
▁nearly	-2312
▁div	-2313
▁Tuesday	-2314
▁sen	-2315
itiz	-2316
St	-2317
▁exact	-2318
okes	-2319
▁type	-2320
hood	-2321
▁staff	-2322
▁Even	-2323
▁Count	-2324
▁terror	-2325
▁Russia	-2326
itten	-2327
lex	-2328
▁civil	-2329
▁speak	-2330
▁Pal	-2331
▁relationship	-2332
▁David	-2333
▁*	-2334
ray	-2335
In	-2336
ires	-2337
▁content	-2338
▁model	-2339
▁original	-2340
▁capt	-2341
▁fans	-2342
▁inside	-2343
▁Japan	-2344
▁cases	-2345
▁arrest	-2346
icro	-2347
▁Americans	-2348
▁Wed	-2349
ises	-2350
▁leave	-2351
▁response	-2352
lled	-2353
rem	-2354
▁international	-2355
▁ur	-2356
ams	-2357
▁coll	-2358
This	-2359
▁Qu	-2360
▁et	-2361
▁reports	-2362
▁average	-2363
de	-2364
▁San	-2365
bor	-2366
▁nation	-2367
che	-2368
▁killed	-2369
▁First	-2370
▁Cor	-2371
▁Gl	-2372
cast	-2373
▁club	-2374
▁broad	-2375
▁users	-2376
▁Geor	-2377
▁source	-2378
▁living	-2379
▁worth	-2380
▁heart	-2381
▁respond	-2382
▁worked	-2383
▁soft	-2384
ips	-2385
▁becom	-2386
▁Paul	-2387
omb	-2388
ellig	-2389
atural	-2390
joy	-2391
▁immedi	-2392
ites	-2393
ctor	-2394
eed	-2395
oto	-2396
▁cal	-2397
▁chance	-2398
ging	-2399
ky	-2400
▁Calif	-2401
ops	-2402
ests	-2403
▁adm	-2404
▁global	-2405
▁director	-2406
▁estab	-2407
▁price	-2408
▁takes	-2409
▁Sund	-2410
rought	-2411
▁oil	-2412
ael	-2413
onst	-2414
bit	-2415
▁workers	-2416
▁ability	-2417
▁<	-2418
▁financial	-2419
▁published	-2420
▁subject	-2421
▁tou	-2422
▁road	-2423
▁cell	-2424
izing	-2425
▁Spe	-2426
▁defin	-2427
▁collect	-2428
▁decided	-2429
▁terms	-2430
▁weap	-2431
ze	-2432
▁associ	-2433
ovember	-2434
osition	-2435
▁buy	-2436
▁Her	-2437
▁mid	-2438
....	-2439
▁Post	-2440
▁phone	-2441
EN	-2442
▁store	-2443
▁squ	-2444
▁lack	-2445
▁emer	-2446
▁January	-2447
▁Feb	-2448
▁log	-2449
▁mother	-2450
▁girl	-2451
▁happened	-2452
unt	-2453
▁gave	-2454
ological	-2455
▁Wednes	-2456
▁influ	-2457
▁capital	-2458
▁require	-2459
▁September	-2460
▁foreign	-2461
vertise	-2462
▁Thurs	-2463
▁currently	-2464
▁Sch	-2465
clus	-2466
▁goes	-2467
▁lives	-2468
▁offer	-2469
aled	-2470
based	-2471
▁tal	-2472
▁plans	-2473
▁fem	-2474
▁situation	-2475
▁Wednesday	-2476
".	-2477
▁member	-2478
rain	-2479
▁Islam	-2480
▁Ang	-2481
He	-2482
▁November	-2483
▁whose	-2484
▁meeting	-2485
▁Thursday	-2486
oved	-2487
▁indic	-2488
▁Tw	-2489
mon	-2490
ino	-2491
▁TV	-2492
▁bur	-2493
▁affect	-2494
▁pict	-2495
▁bank	-2496
▁teams	-2497
▁material	-2498
▁arri	-2499
ought	-2500
▁ill	-2501
▁network	-2502
▁recogn	-2503
▁turned	-2504
▁particip	-2505
▁events	-2506
▁method	-2507
fully	-2508
▁areas	-2509
▁introdu	-2510
▁simple	-2511
ruction	-2512
order	-2513
▁cy	-2514
ese	-2515
▁Afric	-2516
▁Court	-2517
▁career	-2518
▁email	-2519
▁huge	-2520
rect	-2521
face	-2522
▁tool	-2523
▁via	-2524
▁performance	-2525
▁regard	-2526
▁couple	-2527
▁norm	-2528
▁approach	-2529
ills	-2530
▁page	-2531
▁race	-2532
▁August	-2533
ety	-2534
▁mis	-2535
aur	-2536
▁felt	-2537
▁administration	-2538
▁Canada	-2539
▁European	-2540
▁Sunday	-2541
▁October	-2542
▁text	-2543
aily	-2544
▁hon	-2545
▁quickly	-2546
▁improve	-2547
▁round	-2548
oud	-2549
▁numbers	-2550
oor	-2551
▁Californ	-2552
▁British	-2553
▁victim	-2554
istan	-2555
▁Of	-2556
▁engine	-2557
rown	-2558
”.	-2559
▁built	-2560
▁pull	-2561
▁website	-2562
▁loss	-2563
▁economy	-2564
ett	-2565
▁father	-2566
load	-2567
▁dig	-2568
▁fre	-2569
chie	-2570
oo	-2571
▁boy	-2572
ructure	-2573
▁Then	-2574
avy	-2575
▁thous	-2576
▁enjoy	-2577
▁heard	-2578
▁production	-2579
▁spent	-2580
▁board	-2581
▁repe	-2582
▁match	-2583
▁pers	-2584
▁allowed	-2585
▁secret	-2586
▁Black	-2587
bl	-2588
apt	-2589
cember	-2590
▁wide	-2591
▁poll	-2592
▁Sw	-2593
▁legisl	-2594
You	-2595
orters	-2596
▁hands	-2597
▁Pat	-2598
▁trade	-2599
▁travel	-2600
fl	-2601
▁wants	-2602
▁lower	-2603
▁neigh	-2604
down	-2605
▁included	-2606
ume	-2607
▁cover	-2608
atory	-2609
▁California	-2610
▁town	-2611
▁Russian	-2612
uses	-2613
▁knew	-2614
▁IS	-2615
▁ord	-2616
ech	-2617
▁perfect	-2618
gest	-2619
iction	-2620
▁visit	-2621
anks	-2622
▁UK	-2623
▁behav	-2624
estern	-2625
▁gets	-2626
ened	-2627
ession	-2628
▁separ	-2629
▁Kore	-2630
Wh	-2631
ences	-2632
ishing	-2633
?”	-2634
agement	-2635
▁tried	-2636
▁movement	-2637
▁ens	-2638
▁Par	-2639
▁Int	-2640
▁December	-2641
▁forces	-2642
ctions	-2643
▁Mark	-2644
▁}	-2645
force	-2646
▁fear	-2647
hic	-2648
▁attention	-2649
",	-2650
lin	-2651
▁cause	-2652
▁bi	-2653
▁bud	-2654
▁From	-2655
▁brought	-2656
vil	-2657
▁particular	-2658
▁reach	-2659
▁looks	-2660
▁Fin	-2661
▁population	-2662
ceed	-2663
oph	-2664
ibly	-2665
▁previous	-2666
▁vo	-2667
▁morning	-2668
▁growth	-2669
urd	-2670
▁various	-2671
idents	-2672
▁Senate	-2673
▁image	-2674
aker	-2675
▁Che	-2676
ening	-2677
▁fair	-2678
vent	-2679
▁fell	-2680
▁progress	-2681
▁sett	-2682
▁training	-2683
arily	-2684
▁mention	-2685
▁contact	-2686
field	-2687
▁Park	-2688
hold	-2689
yond	-2690
idered	-2691
▁link	-2692
alled	-2693
▁demand	-2694
sequ	-2695
▁rac	-2696
cies	-2697
▁hot	-2698
cle	-2699
▁latest	-2700
▁leader	-2701
ED	-2702
undred	-2703
▁song	-2704
ris	-2705
▁India	-2706
raz	-2707
][	-2708
▁rules	-2709
▁Street	-2710
▁citiz	-2711
▁hor	-2712
uk	-2713
▁Iran	-2714
▁size	-2715
▁liber	-2716
▁coach	-2717
▁prep	-2718
ledge	-2719
▁search	-2720
iers	-2721
▁strugg	-2722
▁King	-2723
▁Cons	-2724
▁Donald	-2725
inks	-2726
ma	-2727
▁fast	-2728
▁features	-2729
▁ess	-2730
ny	-2731
▁Tex	-2732
ecause	-2733
ground	-2734
come	-2735
▁talking	-2736
▁Satur	-2737
▁Times	-2738
▁independ	-2739
▁Party	-2740
uments	-2741
▁Police	-2742
ification	-2743
▁speed	-2744
ondon	-2745
▁reb	-2746
▁wond	-2747
iant	-2748
arth	-2749
▁medical	-2750
▁addition	-2751
▁investigation	-2752
ges	-2753
▁County	-2754
▁star	-2755
▁Up	-2756
);	-2757
▁considered	-2758
▁upon	-2759
rim	-2760
▁exam	-2761
elligence	-2762
▁Center	-2763
▁language	-2764
▁McC	-2765
aries	-2766
▁Rom	-2767
▁Jew	-2768
raq	-2769
bed	-2770
▁Sand	-2771
het	-2772
▁und	-2773
imately	-2774
sych	-2775
▁critic	-2776
▁achie	-2777
▁slow	-2778
▁levels	-2779
▁conduct	-2780
▁card	-2781
▁mach	-2782
▁doll	-2783
▁TH	-2784
▁sort	-2785
▁spokes	-2786
▁Saturday	-2787
▁jobs	-2788
▁sn	-2789
▁box	-2790
▁parents	-2791
▁paper	-2792
ament	-2793
▁safe	-2794
ope	-2795
igr	-2796
▁pen	-2797
unk	-2798
▁Let	-2799
atform	-2800
▁sexual	-2801
▁hear	-2802
▁Net	-2803
AC	-2804
ani	-2805
▁Muslim	-2806
uf	-2807
▁seek	-2808
▁written	-2809
▁Tur	-2810
▁systems	-2811
▁increasing	-2812
▁prior	-2813
▁draw	-2814
▁seven	-2815
ysis	-2816
▁document	-2817
▁Iraq	-2818
asc	-2819
▁Lab	-2820
pir	-2821
==	-2822
OS	-2823
▁prevent	-2824
▁learn	-2825
If	-2826
▁effort	-2827
▁serious	-2828
▁conserv	-2829
▁son	-2830
▁London	-2831
ruary	-2832
idge	-2833
uit	-2834
▁eight	-2835
▁sens	-2836
▁Other	-2837
rast	-2838
▁Read	-2839
▁Sim	-2840
▁extreme	-2841
AL	-2842
▁Mor	-2843
▁inn	-2844
▁regul	-2845
▁Michael	-2846
ources	-2847
▁conc	-2848
itch	-2849
▁screen	-2850
▁despite	-2851
▁violence	-2852
▁Soc	-2853
▁completely	-2854
ining	-2855
▁surve	-2856
▁Gener	-2857
▁message	-2858
▁bott	-2859
room	-2860
▁opportunity	-2861
reedom	-2862
▁obv	-2863
▁East	-2864
▁interesting	-2865
▁claims	-2866
▁range	-2867
▁James	-2868
▁doub	-2869
▁particularly	-2870
▁journal	-2871
▁Most	-2872
atter	-2873
vertisement	-2874
▁biggest	-2875
ico	-2876
▁Play	-2877
▁climate	-2878
▁majority	-2879
▁Republicans	-2880
▁Ser	-2881
▁answer	-2882
▁attacks	-2883
entially	-2884
rench	-2885
▁aren	-2886
▁extra	-2887
▁carry	-2888
anced	-2889
▁exactly	-2890
There	-2891
IT	-2892
aming	-2893
▁guy	-2894
light	-2895
▁officers	-2896
▁society	-2897
▁February	-2898
▁Bill	-2899
isions	-2900
▁quarter	-2901
ibr	-2902
▁defense	-2903
eff	-2904
OP	-2905
▁paid	-2906
▁cross	-2907
▁modern	-2908
▁remain	-2909
set	-2910
▁crim	-2911
▁required	-2912
▁experien	-2913
▁certainly	-2914
▁stories	-2915
ux	-2916
▁practice	-2917
▁Why	-2918
uclear	-2919
▁Since	-2920
inese	-2921
▁except	-2922
▁histor	-2923
▁science	-2924
▁natural	-2925
ospital	-2926
utions	-2927
▁hundred	-2928
▁gas	-2929
▁movie	-2930
oses	-2931
▁table	-2932
lying	-2933
▁looked	-2934
▁middle	-2935
IC	-2936
▁pan	-2937
▁products	-2938
▁surv	-2939
ension	-2940
▁dro	-2941
erc	-2942
▁leading	-2943
illed	-2944
▁communic	-2945
▁summer	-2946
▁rout	-2947
▁prison	-2948
▁lay	-2949
▁details	-2950
▁term	-2951
▁Coun	-2952
▁aw	-2953
▁finally	-2954
ously	-2955
▁ult	-2956
▁sometimes	-2957
▁stuff	-2958
▁convers	-2959
▁Democratic	-2960
▁imag	-2961
▁starting	-2962
▁user	-2963
nces	-2964
▁ones	-2965
▁showed	-2966
akers	-2967
uing	-2968
▁comments	-2969
aves	-2970
tr	-2971
▁described	-2972
▁named	-2973
▁quality	-2974
ari	-2975
▁giving	-2976
▁changed	-2977
▁remains	-2978
ha	-2979
hib	-2980
▁costs	-2981
▁Rec	-2982
▁region	-2983
▁Many	-2984
▁Jack	-2985
▁chief	-2986
▁blood	-2987
anch	-2988
icks	-2989
▁Mon	-2990
pper	-2991
▁occur	-2992
aught	-2993
▁poor	-2994
▁provided	-2995
▁danger	-2996
enge	-2997
▁Every	-2998
ida	-2999
coin	-3000
▁growing	-3001
eth	-3002
▁Last	-3003
▁education	-3004
▁mob	-3005
▁continued	-3006
mp	-3007
▁multiple	-3008
▁Texas	-3009
▁writing	-3010
▁parts	-3011
▁assist	-3012
▁Apple	-3013
▁voters	-3014
▁path	-3015
▁thinking	-3016
▁Chinese	-3017
▁demonst	-3018
▁purch	-3019
▁ready	-3020
▁Dis	-3021
▁wouldn	-3022
fort	-3023
▁Rich	-3024
▁League	-3025
arr	-3026
▁write	-3027
▁purp	-3028
▁maintain	-3029
inary	-3030
▁request	-3031
▁died	-3032
urt	-3033
▁mill	-3034
ago	-3035
▁William	-3036
▁culture	-3037
▁Green	-3038
▁fix	-3039
US	-3040
mit	-3041
▁camer	-3042
▁implement	-3043
▁hous	-3044
▁efforts	-3045
▁increased	-3046
▁spot	-3047
aly	-3048
▁calls	-3049
▁(@	-3050
▁cele	-3051
▁reading	-3052
▁file	-3053
ables	-3054
▁perhaps	-3055
ban	-3056
▁platform	-3057
oul	-3058
oper	-3059
▁Get	-3060
FL	-3061
▁Bo	-3062
▁Indian	-3063
▁kids	-3064
▁damage	-3065
▁usually	-3066
▁guys	-3067
▁alone	-3068
▁although	-3069
▁Over	-3070
▁football	-3071
omp	-3072
▁standard	-3073
▁speech	-3074
▁directly	-3075
▁beyond	-3076
▁towards	-3077
▁avoid	-3078
▁select	-3079
▁reality	-3080
▁consist	-3081
arian	-3082
▁student	-3083
▁includes	-3084
ems	-3085
▁Bel	-3086
zz	-3087
▁Super	-3088
icated	-3089
▁Rober	-3090
rowd	-3091
▁Democrats	-3092
▁throughout	-3093
▁scene	-3094
inated	-3095
▁epis	-3096
using	-3097
itute	-3098
▁couldn	-3099
ford	-3100
▁http	-3101
▁center	-3102
▁challeng	-3103
▁immediately	-3104
▁researc	-3105
▁Mart	-3106
▁unf	-3107
▁recomm	-3108
▁effects	-3109
▁Minister	-3110
▁il	-3111
▁complex	-3112
ara	-3113
▁Well	-3114
▁rob	-3115
▁subst	-3116
▁clos	-3117
--------	-3118
▁Comp	-3119
iles	-3120
▁additional	-3121
▁Ben	-3122
▁agency	-3123
▁safety	-3124
▁Our	-3125
▁choice	-3126
▁designed	-3127
▁wife	-3128
▁tro	-3129
ston	-3130
hest	-3131
egr	-3132
▁gone	-3133
▁concept	-3134
▁ver	-3135
▁Add	-3136
▁debate	-3137
▁officer	-3138
▁piece	-3139
▁remember	-3140
▁blog	-3141
▁corpor	-3142
▁Day	-3143
▁software	-3144
▁sle	-3145
aches	-3146
▁cast	-3147
astic	-3148
▁Associ	-3149
▁ahead	-3150
ilies	-3151
itor	-3152
▁sell	-3153
▁figure	-3154
wise	-3155
▁thousands	-3156
▁toward	-3157
rupt	-3158
▁ten	-3159
▁swe	-3160
▁receive	-3161
▁opin	-3162
▁letter	-3163
▁counter	-3164
▁Val	-3165
ports	-3166
bur	-3167
irth	-3168
▁passed	-3169
ampions	-3170
omen	-3171
▁option	-3172
▁pressure	-3173
▁moved	-3174
▁brain	-3175
▁Like	-3176
▁twe	-3177
▁sil	-3178
▁relative	-3179
iment	-3180
▁launch	-3181
▁II	-3182
adem	-3183
▁appears	-3184
▁prec	-3185
icient	-3186
▁helped	-3187
▁stage	-3188
airs	-3189
atever	-3190
ression	-3191
aph	-3192
imum	-3193
▁alleged	-3194
▁Tor	-3195
▁property	-3196
▁ut	-3197
agon	-3198
BI	-3199
▁clean	-3200
sp	-3201
▁French	-3202
▁disapp	-3203
olute	-3204
▁Star	-3205
▁meaning	-3206
▁organization	-3207
▁cris	-3208
▁tour	-3209
roy	-3210
▁drive	-3211
▁Wind	-3212
▁suspect	-3213
▁park	-3214
▁rock	-3215
▁dog	-3216
▁touch	-3217
▁Sci	-3218
▁budget	-3219
itation	-3220
▁Serv	-3221
▁nom	-3222
▁Although	-3223
▁moving	-3224
▁conditions	-3225
iny	-3226
Ph	-3227
▁score	-3228
aughter	-3229
▁date	-3230
▁dark	-3231
▁English	-3232
just	-3233
▁happy	-3234
▁ign	-3235
▁reasons	-3236
urning	-3237
berg	-3238
▁command	-3239
▁maybe	-3240
▁device	-3241
▁sat	-3242
rief	-3243
▁fan	-3244
▁encour	-3245
▁Ham	-3246
▁failed	-3247
▁beginning	-3248
itness	-3249
▁nuclear	-3250
▁league	-3251
▁difference	-3252
▁deg	-3253
▁aim	-3254
wood	-3255
▁myself	-3256
▁copy	-3257
▁characters	-3258
▁Syria	-3259
▁computer	-3260
chan	-3261
▁nature	-3262
ocked	-3263
yan	-3264
▁title	-3265
men	-3266
▁Air	-3267
▁Govern	-3268
ivity	-3269
▁college	-3270
▁compared	-3271
add	-3272
▁Advertisement	-3273
▁century	-3274
new	-3275
more	-3276
▁Tom	-3277
▁battle	-3278
▁Because	-3279
lease	-3280
▁La	-3281
▁stra	-3282
▁band	-3283
▁sche	-3284
▁wall	-3285
?"	-3286
▁candidate	-3287
▁books	-3288
▁refer	-3289
▁estim	-3290
▁contribut	-3291
▁spending	-3292
erve	-3293
▁conference	-3294
▁shown	-3295
▁powerful	-3296
▁presidential	-3297
▁citizens	-3298
▁positive	-3299
▁disp	-3300
▁yes	-3301
▁forced	-3302
▁largest	-3303
▁limited	-3304
aling	-3305
ufact	-3306
igration	-3307
▁Cap	-3308
▁sal	-3309
▁eyes	-3310
▁arch	-3311
▁x	-3312
▁trust	-3313
AM	-3314
▁executive	-3315
ext	-3316
▁bal	-3317
▁High	-3318
▁schools	-3319
▁necessary	-3320
▁Mex	-3321
enty	-3322
They	-3323
▁illeg	-3324
▁note	-3325
iable	-3326
venue	-3327
aint	-3328
▁Jer	-3329
▁meant	-3330
OT	-3331
orks	-3332
orney	-3333
▁confir	-3334
▁People	-3335
▁eventually	-3336
▁International	-3337
▁throw	-3338
▁feature	-3339
▁Reg	-3340
▁religious	-3341
▁families	-3342
▁analysis	-3343
ource	-3344
▁aware	-3345
▁Def	-3346
▁crowd	-3347
▁Smith	-3348
▁firm	-3349
▁Ant	-3350
▁autom	-3351
▁mix	-3352
▁draft	-3353
▁Image	-3354
▁followed	-3355
▁allows	-3356
▁Australia	-3357
▁grad	-3358
▁Tod	-3359
▁streng	-3360
▁During	-3361
▁cool	-3362
▁pus	-3363
▁easily	-3364
▁esc	-3365
▁George	-3366
▁actions	-3367
▁correct	-3368
▁gives	-3369
▁Rob	-3370
▁cat	-3371
▁Bre	-3372
ares	-3373
▁yourself	-3374
▁susp	-3375
▁physical	-3376
▁feed	-3377
ube	-3378
ero	-3379
▁treatment	-3380
rated	-3381
band	-3382
EC	-3383
▁overall	-3384
▁School	-3385
▁politics	-3386
board	-3387
▁income	-3388
ken	-3389
▁smart	-3390
▁detail	-3391
▁Germany	-3392
▁signed	-3393
encies	-3394
iring	-3395
ressed	-3396
▁senior	-3397
bum	-3398
cul	-3399
▁£	-3400
▁EU	-3401
▁decades	-3402
▁Brown	-3403
▁crime	-3404
▁appeared	-3405
▁Angel	-3406
▁ideas	-3407
▁Ber	-3408
▁analy	-3409
▁promot	-3410
▁display	-3411
▁central	-3412
▁har	-3413
▁credit	-3414
ev	-3415
▁uses	-3416
etro	-3417
craft	-3418
▁Flor	-3419
▁weapons	-3420
▁ang	-3421
▁nice	-3422
▁benefits	-3423
▁Christian	-3424
▁unique	-3425
▁General	-3426
uty	-3427
▁Earth	-3428
▁sales	-3429
▁Art	-3430
▁lif	-3431
▁crisis	-3432
▁frequ	-3433
riage	-3434
▁Oh	-3435
ville	-3436
▁goals	-3437
▁Trans	-3438
▁Bu	-3439
▁noted	-3440
▁altern	-3441
▁customers	-3442
▁conflic	-3443
iance	-3444
▁psych	-3445
▁Franc	-3446
▁dise	-3447
▁Union	-3448
▁>	-3449
resh	-3450
▁continues	-3451
ram	-3452
AP	-3453
▁projects	-3454
lements	-3455
▁Mac	-3456
▁mist	-3457
urance	-3458
itely	-3459
▁developed	-3460
▁Arab	-3461
▁Gold	-3462
aud	-3463
▁beaut	-3464
▁rates	-3465
▁challenge	-3466
▁drop	-3467
▁door	-3468
▁related	-3469
▁•	-3470
▁sto	-3471
▁Two	-3472
▁rap	-3473
▁manager	-3474
▁lic	-3475
box	-3476
▁Follow	-3477
▁Another	-3478
▁peace	-3479
▁Council	-3480
▁individuals	-3481
▁charge	-3482
▁truth	-3483
▁predict	-3484
▁previously	-3485
onents	-3486
oes	-3487
▁apparent	-3488
▁intelligence	-3489
▁reform	-3490
dd	-3491
▁Scott	-3492
pre	-3493
change	-3494
yl	-3495
▁measure	-3496
▁fully	-3497
▁Alex	-3498
▁successful	-3499
▁Cr	-3500
▁straight	-3501
▁larger	-3502
vin	-3503
oti	-3504
▁Internet	-3505
ET	-3506
▁rule	-3507
orter	-3508
▁Also	-3509
▁lines	-3510
▁emb	-3511
nown	-3512
▁criminal	-3513
part	-3514
▁expand	-3515
▁advant	-3516
▁brother	-3517
▁highly	-3518
EL	-3519
mar	-3520
▁clearly	-3521
▁incident	-3522
▁Law	-3523
▁traff	-3524
IA	-3525
▁favorite	-3526
▁resources	-3527
ki	-3528
▁attract	-3529
▁primary	-3530
▁spread	-3531
ounds	-3532
ategy	-3533
▁minor	-3534
owers	-3535
ID	-3536
▁Mag	-3537
▁programs	-3538
▁seemed	-3539
As	-3540
▁Yes	-3541
▁save	-3542
while	-3543
▁reached	-3544
▁web	-3545
secut	-3546
▁Your	-3547
antly	-3548
▁kept	-3549
▁prem	-3550
▁Matt	-3551
▁knowledge	-3552
sey	-3553
▁manufact	-3554
▁greater	-3555
▁Stud	-3556
▁feet	-3557
▁emot	-3558
▁places	-3559
▁color	-3560
▁shooting	-3561
▁send	-3562
▁rare	-3563
net	-3564
▁regular	-3565
▁Hillary	-3566
▁Mo	-3567
▁spir	-3568
icit	-3569
ota	-3570
bon	-3571
▁England	-3572
iders	-3573
▁laun	-3574
ingly	-3575
OM	-3576
▁sources	-3577
wide	-3578
levision	-3579
▁fighting	-3580
▁knows	-3581
▁rise	-3582
▁origin	-3583
iced	-3584
▁studies	-3585
▁owners	-3586
▁cities	-3587
osh	-3588
term	-3589
dom	-3590
▁arm	-3591
▁Chic	-3592
▁claimed	-3593
▁spend	-3594
▁organiz	-3595
EO	-3596
▁liter	-3597
▁pun	-3598
▁fine	-3599
▁options	-3600
▁ended	-3601
▁caused	-3602
▁Op	-3603
▁researchers	-3604
▁AP	-3605
▁voice	-3606
▁Florida	-3607
▁status	-3608
ocks	-3609
▁calling	-3610
▁activity	-3611
▁uns	-3612
aith	-3613
lick	-3614
▁prices	-3615
▁Mod	-3616
▁normal	-3617
onent	-3618
usion	-3619
roll	-3620
que	-3621
▁Sam	-3622
”,	-3623
olic	-3624
▁employees	-3625
ado	-3626
iled	-3627
ifying	-3628
▁Bay	-3629
▁haven	-3630
▁integr	-3631
▁adding	-3632
▁Phil	-3633
▁print	-3634
▁hospital	-3635
▁Pre	-3636
▁reflect	-3637
▁shut	-3638
▁names	-3639
▁happens	-3640
▁policies	-3641
):	-3642
ength	-3643
▁pros	-3644
▁female	-3645
▁traditional	-3646
▁trou	-3647
▁raised	-3648
uana	-3649
▁album	-3650
▁virt	-3651
▁concerns	-3652
▁charges	-3653
▁plant	-3654
▁Sun	-3655
▁Port	-3656
▁supposed	-3657
▁jump	-3658
rol	-3659
▁funding	-3660
oles	-3661
▁minister	-3662
▁creating	-3663
rs	-3664
▁France	-3665
▁absolute	-3666
▁Chicago	-3667
▁enem	-3668
▁basic	-3669
▁authorities	-3670
iverse	-3671
▁commer	-3672
▁slight	-3673
▁acqu	-3674
.’	-3675
▁freedom	-3676
▁scen	-3677
▁Mike	-3678
▁beat	-3679
▁seeing	-3680
▁grand	-3681
inger	-3682
▁Bit	-3683
▁posted	-3684
ona	-3685
▁leaving	-3686
vere	-3687
uman	-3688
▁lik	-3689
ribution	-3690
roid	-3691
▁green	-3692
▁patients	-3693
▁style	-3694
ica	-3695
▁ensure	-3696
▁beg	-3697
▁weekend	-3698
▁actual	-3699
▁birth	-3700
▁cry	-3701
▁Att	-3702
▁impl	-3703
▁mechan	-3704
▁Micro	-3705
▁wait	-3706
ijuana	-3707
▁agreement	-3708
▁ir	-3709
▁revealed	-3710
▁Step	-3711
see	-3712
gen	-3713
▁Sl	-3714
▁offered	-3715
▁push	-3716
ya	-3717
▁Lou	-3718
▁Health	-3719
▁rank	-3720
▁propos	-3721
▁behavior	-3722
▁mer	-3723
▁station	-3724
▁willing	-3725
▁eth	-3726
▁eye	-3727
▁appl	-3728
▁obser	-3729
▁adop	-3730
▁weight	-3731
▁Secret	-3732
▁Instead	-3733
mark	-3734
ipp	-3735
ipped	-3736
▁Mil	-3737
▁mostly	-3738
▁Wall	-3739
▁Once	-3740
▁Rel	-3741
soft	-3742
▁Sub	-3743
▁gold	-3744
▁application	-3745
.'	-3746
▁vac	-3747
▁adult	-3748
acing	-3749
▁Del	-3750
arliam	-3751
▁believed	-3752
▁arrested	-3753
istry	-3754
▁picture	-3755
▁strategy	-3756
▁establ	-3757
earch	-3758
▁determin	-3759
▁values	-3760
itude	-3761
▁cars	-3762
ING	-3763
▁enforce	-3764
▁install	-3765
rian	-3766
ront	-3767
▁brief	-3768
▁lawy	-3769
▁perm	-3770
▁learned	-3771
▁choose	-3772
▁Mal	-3773
▁records	-3774
▁commit	-3775
▁Are	-3776
▁Bush	-3777
▁Liber	-3778
▁qual	-3779
▁devices	-3780
▁assault	-3781
cher	-3782
▁massive	-3783
▁Big	-3784
▁street	-3785
▁parties	-3786
▁wonder	-3787
▁Press	-3788
▁Johnson	-3789
SA	-3790
alse	-3791
igned	-3792
▁wild	-3793
▁whatever	-3794
arliament	-3795
▁mount	-3796
▁confirmed	-3797
▁dire	-3798
But	-3799
▁border	-3800
org	-3801
▁Under	-3802
aby	-3803
▁Photo	-3804
▁feeling	-3805
▁judge	-3806
▁Ter	-3807
▁asking	-3808
pri	-3809
▁district	-3810
▁influence	-3811
▁Justice	-3812
ented	-3813
Ch	-3814
▁enter	-3815
▁provides	-3816
▁wat	-3817
▁critical	-3818
▁showing	-3819
▁negoti	-3820
▁lose	-3821
▁whom	-3822
▁images	-3823
▁temper	-3824
▁drink	-3825
RE	-3826
inn	-3827
▁Inc	-3828
▁Commission	-3829
▁celebr	-3830
▁operations	-3831
ection	-3832
▁Pri	-3833
▁produced	-3834
ste	-3835
▁residents	-3836
▁opposition	-3837
▁teac	-3838
▁Committee	-3839
▁mission	-3840
▁Palest	-3841
▁brand	-3842
▁runs	-3843
orial	-3844
aked	-3845
▁tend	-3846
▁Great	-3847
▁debt	-3848
▁Korea	-3849
▁cru	-3850
▁Western	-3851
▁produce	-3852
▁Francis	-3853
▁Mad	-3854
▁dream	-3855
▁Sanders	-3856
▁fat	-3857
▁advoc	-3858
point	-3859
icial	-3860
ae	-3861
AD	-3862
estic	-3863
▁independent	-3864
▁Security	-3865
▁defend	-3866
▁unc	-3867
▁Those	-3868
▁Us	-3869
ugg	-3870
▁benefit	-3871
▁tick	-3872
▁digital	-3873
▁pattern	-3874
▁Windows	-3875
▁dollars	-3876
▁Found	-3877
▁etc	-3878
▁solution	-3879
▁core	-3880
abor	-3881
▁offers	-3882
▁opening	-3883
▁Chris	-3884
▁responsible	-3885
▁vill	-3886
▁NFL	-3887
▁highest	-3888
▁effective	-3889
ograph	-3890
rav	-3891
amb	-3892
▁hero	-3893
▁interested	-3894
cell	-3895
▁section	-3896
▁Game	-3897
ocr	-3898
ags	-3899
▁learning	-3900
▁Any	-3901
▁Cup	-3902
▁worse	-3903
icians	-3904
What	-3905
no	-3906
▁investment	-3907
▁fit	-3908
▁agreed	-3909
ties	-3910
gency	-3911
IL	-3912
▁daily	-3913
▁Office	-3914
▁marriage	-3915
www	-3916
▁restrict	-3917
▁chair	-3918
▁Ty	-3919
ription	-3920
rial	-3921
▁replace	-3922
ords	-3923
mine	-3924
▁train	-3925
▁Dist	-3926
▁millions	-3927
hicle	-3928
▁trial	-3929
That	-3930
▁mur	-3931
▁occas	-3932
ipe	-3933
▁television	-3934
▁chem	-3935
uries	-3936
▁proposed	-3937
▁Uk	-3938
iation	-3939
▁Commun	-3940
▁basis	-3941
▁kick	-3942
▁generally	-3943
▁types	-3944
▁See	-3945
▁defe	-3946
▁heavy	-3947
▁partners	-3948
▁join	-3949
▁miles	-3950
▁protest	-3951
▁Wil	-3952
illing	-3953
▁opinion	-3954
▁explained	-3955
▁memory	-3956
▁reject	-3957
▁Direct	-3958
▁opened	-3959
aks	-3960
▁hundreds	-3961
▁announce	-3962
coming	-3963
▁photo	-3964
vest	-3965
▁condition	-3966
▁Both	-3967
▁achieve	-3968
▁Tre	-3969
▁onto	-3970
▁Vir	-3971
▁coal	-3972
▁der	-3973
▁theory	-3974
▁Fox	-3975
OU	-3976
▁male	-3977
icip	-3978
▁accused	-3979
▁becomes	-3980
BA	-3981
▁controvers	-3982
azing	-3983
CC	-3984
▁Cle	-3985
▁destroy	-3986
And	-3987
▁legislation	-3988
▁advantage	-3989
▁management	-3990
oly	-3991
▁born	-3992
▁Today	-3993
▁surround	-3994
▁Hall	-3995
▁Canadian	-3996
▁illegal	-3997
▁associated	-3998
▁Robert	-3999
▁load	-4000
▁ice	-4001
▁assum	-4002
▁electric	-4003
▁Islamic	-4004
▁Jud	-4005
outhern	-4006
▁map	-4007
▁understanding	-4008
▁Ac	-4009
ander	-4010
rate	-4011
▁unlike	-4012
▁easier	-4013
orthern	-4014
▁becoming	-4015
▁neighbor	-4016
▁ship	-4017
▁Thom	-4018
▁served	-4019
▁spl	-4020
▁sleep	-4021
▁obtain	-4022
▁Despite	-4023
▁THE	-4024
▁Out	-4025
▁Prof	-4026
eline	-4027
well	-4028
▁serve	-4029
▁strik	-4030
▁winning	-4031
▁camera	-4032
▁limit	-4033
witch	-4034
oom	-4035
▁professional	-4036
▁initial	-4037
▁shared	-4038
▁wealth	-4039
GB	-4040
▁vs	-4041
▁Mer	-4042
▁double	-4043
▁scientists	-4044
▁documents	-4045
▁location	-4046
▁reduce	-4047
▁nine	-4048
▁harm	-4049
▁Bank	-4050
odes	-4051
▁species	-4052
olf	-4053
ortunately	-4054
▁bottom	-4055
known	-4056
▁incred	-4057
▁audience	-4058
▁frame	-4059
▁negative	-4060
bert	-4061
▁extremely	-4062
▁department	-4063
ference	-4064
▁amb	-4065
▁marijuana	-4066
▁resist	-4067
▁communities	-4068
iful	-4069
▁Please	-4070
▁thus	-4071
za	-4072
▁Ver	-4073
▁machine	-4074
▁Britain	-4075
▁returned	-4076
▁UN	-4077
▁Jim	-4078
▁rat	-4079
▁active	-4080
▁belief	-4081
▁solid	-4082
house	-4083
▁ge	-4084
▁victims	-4085
▁victory	-4086
▁ran	-4087
ios	-4088
▁Los	-4089
▁existing	-4090
▁leadership	-4091
▁bed	-4092
BS	-4093
lant	-4094
▁Jones	-4095
▁episode	-4096
▁purpose	-4097
▁comfort	-4098
▁hearing	-4099
▁AM	-4100
▁mobile	-4101
▁committee	-4102
▁church	-4103
▁Microsoft	-4104
▁watching	-4105
lands	-4106
atically	-4107
FC	-4108
orrow	-4109
▁doubt	-4110
▁Their	-4111
▁Institute	-4112
▁faith	-4113
▁Carol	-4114
▁teach	-4115
▁bomb	-4116
▁internet	-4117
▁putting	-4118
ears	-4119
▁instance	-4120
▁dism	-4121
equ	-4122
▁notice	-4123
istics	-4124
▁argument	-4125
▁fresh	-4126
▁Leg	-4127
▁conservative	-4128
▁notes	-4129
▁definitely	-4130
▁Ken	-4131
▁explain	-4132
▁die	-4133
ghan	-4134
▁FBI	-4135
▁Tim	-4136
▁Que	-4137
▁separate	-4138
scrib	-4139
▁supporters	-4140
▁Sil	-4141
▁launched	-4142
▁views	-4143
▁Jeff	-4144
▁coverage	-4145
▁Bur	-4146
▁Miss	-4147
met	-4148
▁Israeli	-4149
▁Yet	-4150
asy	-4151
▁floor	-4152
iller	-4153
ih	-4154
▁issued	-4155
ography	-4156
cont	-4157
▁purs	-4158
▁competition	-4159
▁dangerous	-4160
▁radio	-4161
▁cards	-4162
▁trend	-4163
works	-4164
how	-4165
rad	-4166
▁background	-4167
▁north	-4168
acity	-4169
▁vehicle	-4170
iliar	-4171
▁Frank	-4172
▁Church	-4173
▁sites	-4174
zen	-4175
▁suggested	-4176
________	-4177
▁spoke	-4178
▁charged	-4179
▁traffic	-4180
▁decade	-4181
▁drugs	-4182
resp	-4183
▁commercial	-4184
inate	-4185
▁repeated	-4186
▁direction	-4187
ario	-4188
▁restaur	-4189
▁Inter	-4190
gers	-4191
going	-4192
▁refere	-4193
ampionship	-4194
▁Good	-4195
▁Fore	-4196
▁labor	-4197
▁stated	-4198
▁driver	-4199
▁worst	-4200
▁closed	-4201
▁novel	-4202
▁hus	-4203
▁daughter	-4204
▁Ukrain	-4205
▁Back	-4206
▁contain	-4207
▁sun	-4208
PA	-4209
inct	-4210
ctors	-4211
la	-4212
vention	-4213
▁structure	-4214
anted	-4215
▁gay	-4216
PS	-4217
▁ded	-4218
▁hack	-4219
▁Ryan	-4220
▁Pak	-4221
bing	-4222
▁max	-4223
▁task	-4224
▁items	-4225
▁smaller	-4226
▁Char	-4227
▁Sur	-4228
▁transfer	-4229
gu	-4230
▁plays	-4231
▁cash	-4232
▁Met	-4233
▁discovered	-4234
▁telling	-4235
▁candidates	-4236
▁driving	-4237
which	-4238
▁transport	-4239
!”	-4240
▁Gree	-4241
▁Const	-4242
▁Who	-4243
▁react	-4244
▁finding	-4245
▁disease	-4246
▁tools	-4247
semb	-4248
▁entirely	-4249
iling	-4250
▁Sup	-4251
▁surface	-4252
ribute	-4253
▁nor	-4254
andom	-4255
▁concerned	-4256
ga	-4257
azon	-4258
▁businesses	-4259
▁supported	-4260
▁Jo	-4261
▁false	-4262
▁Richard	-4263
▁Cur	-4264
▁animals	-4265
▁exerc	-4266
▁PC	-4267
andon	-4268
NN	-4269
▁annual	-4270
▁older	-4271
icy	-4272
iest	-4273
▁wel	-4274
do	-4275
oman	-4276
ulated	-4277
▁farm	-4278
oyal	-4279
▁caught	-4280
rey	-4281
▁please	-4282
overy	-4283
▁Kh	-4284
▁compar	-4285
▁categ	-4286
▁Ev	-4287
▁GOP	-4288
▁largely	-4289
▁allowing	-4290
▁aspect	-4291
▁fuel	-4292
ulf	-4293
▁raise	-4294
▁testing	-4295
arant	-4296
ius	-4297
▁believes	-4298
▁insurance	-4299
▁strength	-4300
▁requires	-4301
hem	-4302
tered	-4303
inter	-4304
annel	-4305
kins	-4306
▁blue	-4307
▁generation	-4308
▁afford	-4309
▁consequ	-4310
▁stock	-4311
phone	-4312
▁decisions	-4313
▁murder	-4314
▁justice	-4315
▁strateg	-4316
night	-4317
ait	-4318
igrants	-4319
▁African	-4320
▁context	-4321
izes	-4322
▁concern	-4323
▁activities	-4324
▁Afghan	-4325
▁construction	-4326
▁truly	-4327
ancy	-4328
ibrary	-4329
ici	-4330
gl	-4331
▁Association	-4332
▁;	-4333
ossible	-4334
▁Sal	-4335
▁Dec	-4336
▁planning	-4337
▁spokesman	-4338
but	-4339
▁Joe	-4340
rick	-4341
olly	-4342
▁Nor	-4343
▁Africa	-4344
AA	-4345
itable	-4346
▁accur	-4347
▁holding	-4348
ception	-4349
cknow	-4350
▁Group	-4351
▁presence	-4352
serv	-4353
▁Jewish	-4354
▁witness	-4355
▁refuge	-4356
osure	-4357
▁san	-4358
▁rough	-4359
anging	-4360
▁phil	-4361
▁injury	-4362
▁tells	-4363
▁guess	-4364
▁Virgin	-4365
▁waiting	-4366
▁tim	-4367
▁attend	-4368
▁Pakistan	-4369
▁placed	-4370
▁Rock	-4371
▁scale	-4372
▁sequ	-4373
pective	-4374
udd	-4375
▁Rem	-4376
▁Louis	-4377
▁establish	-4378
▁Palestin	-4379
NA	-4380
▁catch	-4381
▁Martin	-4382
cript	-4383
▁conflict	-4384
▁unit	-4385
▁deliver	-4386
▁hasn	-4387
▁Fe	-4388
▁kid	-4389
▁enforcement	-4390
bre	-4391
▁length	-4392
▁CEO	-4393
▁Team	-4394
OL	-4395
!!	-4396
▁Mont	-4397
▁providing	-4398
▁Angeles	-4399
▁joined	-4400
▁mentioned	-4401
ocracy	-4402
▁Pet	-4403
▁Government	-4404
▁recommend	-4405
▁update	-4406
ada	-4407
issions	-4408
igan	-4409
▁Japanese	-4410
▁banks	-4411
▁introduced	-4412
▁initi	-4413
nel	-4414
▁missing	-4415
▁offensive	-4416
▁Android	-4417
▁sports	-4418
▁Thomas	-4419
▁abuse	-4420
isation	-4421
onym	-4422
▁fant	-4423
▁housing	-4424
▁interests	-4425
▁download	-4426
ava	-4427
▁newsp	-4428
▁homes	-4429
▁eat	-4430
bour	-4431
onto	-4432
owl	-4433
▁stopped	-4434
▁conversation	-4435
▁Mexico	-4436
▁established	-4437
▁occup	-4438
▁fourth	-4439
season	-4440
azine	-4441
win	-4442
icles	-4443
▁cancer	-4444
▁bul	-4445
▁removed	-4446
EM	-4447
▁cook	-4448
▁Time	-4449
▁Jose	-4450
▁useful	-4451
▁Fire	-4452
ady	-4453
itz	-4454
▁cells	-4455
vant	-4456
▁discussion	-4457
icon	-4458
cks	-4459
▁veter	-4460
▁south	-4461
▁Bern	-4462
▁obvious	-4463
▁Jon	-4464
ula	-4465
▁girls	-4466
▁operation	-4467
▁stick	-4468
▁committed	-4469
▁assess	-4470
umn	-4471
▁identified	-4472
cient	-4473
▁models	-4474
oted	-4475
▁focused	-4476
▁Supreme	-4477
▁measures	-4478
▁figures	-4479
real	-4480
ications	-4481
▁managed	-4482
▁Mary	-4483
▁tough	-4484
ano	-4485
▁hair	-4486
▁finished	-4487
▁Web	-4488
▁funds	-4489
▁skills	-4490
kin	-4491
▁acknow	-4492
▁prefer	-4493
▁setting	-4494
▁arrived	-4495
▁exclus	-4496
outs	-4497
▁ST	-4498
▁MP	-4499
▁transl	-4500
▁Put	-4501
oms	-4502
anda	-4503
ups	-4504
apped	-4505
▁Research	-4506
▁conclud	-4507
▁click	-4508
ading	-4509
▁files	-4510
▁keeping	-4511
formation	-4512
▁appropri	-4513
▁partner	-4514
▁feels	-4515
▁exchange	-4516
place	-4517
ulate	-4518
▁Peter	-4519
▁Army	-4520
what	-4521
verse	-4522
▁tweet	-4523
enses	-4524
▁identity	-4525
wing	-4526
▁earth	-4527
lig	-4528
Re	-4529
▁Prime	-4530
▁owner	-4531
itutional	-4532
▁relatively	-4533
▁spirit	-4534
▁survey	-4535
▁otherwise	-4536
▁therefore	-4537
▁photos	-4538
▁trip	-4539
Don	-4540
▁detect	-4541
▁steps	-4542
spe	-4543
ication	-4544
▁husband	-4545
▁Den	-4546
ronic	-4547
▁gender	-4548
SP	-4549
▁slightly	-4550
▁strike	-4551
agn	-4552
▁https	-4553
▁defensive	-4554
makers	-4555
▁taxes	-4556
▁roll	-4557
uct	-4558
▁connection	-4559
dden	-4560
▁collection	-4561
mas	-4562
▁protection	-4563
gar	-4564
▁Public	-4565
ka	-4566
hi	-4567
▁weak	-4568
prof	-4569
▁suggests	-4570
▁commission	-4571
ighter	-4572
▁elements	-4573
▁corner	-4574
▁killing	-4575
▁circum	-4576
ocal	-4577
vis	-4578
ucky	-4579
▁sust	-4580
hedul	-4581
rig	-4582
▁bigger	-4583
ancing	-4584
▁depend	-4585
isf	-4586
icide	-4587
▁supply	-4588
▁mere	-4589
▁fle	-4590
ania	-4591
▁Bitcoin	-4592
▁Secretary	-4593
▁remind	-4594
▁Media	-4595
▁award	-4596
▁aggress	-4597
▁sides	-4598
▁organizations	-4599
▁gain	-4600
▁Lu	-4601
hens	-4602
ST	-4603
▁Atlant	-4604
stream	-4605
adium	-4606
▁talks	-4607
upp	-4608
▁Amazon	-4609
▁College	-4610
▁happening	-4611
▁planned	-4612
▁Syrian	-4613
rency	-4614
▁amazing	-4615
▁mental	-4616
odies	-4617
▁planet	-4618
▁dat	-4619
▁Sol	-4620
uate	-4621
eah	-4622
▁speaking	-4623
▁micro	-4624
▁immigration	-4625
▁Mean	-4626
▁Er	-4627
▁thanks	-4628
▁failure	-4629
▁Camp	-4630
▁starts	-4631
▁regist	-4632
▁guard	-4633
▁decide	-4634
▁hate	-4635
▁pet	-4636
uters	-4637
▁familiar	-4638
idering	-4639
lor	-4640
▁Mos	-4641
▁crew	-4642
▁sudden	-4643
iot	-4644
▁beer	-4645
▁appoint	-4646
▁wish	-4647
▁helping	-4648
agues	-4649
▁none	-4650
▁filed	-4651
——	-4652
▁spect	-4653
▁window	-4654
▁carried	-4655
rees	-4656
▁struct	-4657
▁Toronto	-4658
TC	-4659
▁batter	-4660
eless	-4661
DA	-4662
When	-4663
▁script	-4664
▁army	-4665
amm	-4666
▁scientific	-4667
oston	-4668
▁standing	-4669
▁Ari	-4670
▁votes	-4671
HL	-4672
▁markets	-4673
gypt	-4674
▁Plan	-4675
▁environmental	-4676
▁Mars	-4677
▁domestic	-4678
▁Prot	-4679
▁tack	-4680
▁Jes	-4681
▁variety	-4682
▁multi	-4683
▁Bob	-4684
▁standards	-4685
▁cuts	-4686
▁Service	-4687
▁revolution	-4688
▁professor	-4689
gn	-4690
ola	-4691
ynam	-4692
▁dropped	-4693
erous	-4694
▁Bet	-4695
▁accounts	-4696
▁neighborhood	-4697
▁Mur	-4698
ocol	-4699
▁que	-4700
awn	-4701
▁academ	-4702
▁Social	-4703
range	-4704
aren	-4705
▁appre	-4706
RA	-4707
▁turns	-4708
▁Before	-4709
▁Rub	-4710
imal	-4711
▁vul	-4712
▁territ	-4713
▁worry	-4714
▁honest	-4715
▁union	-4716
▁impossible	-4717
iser	-4718
▁alternative	-4719
ipping	-4720
▁Dan	-4721
▁pair	-4722
▁operating	-4723
▁Central	-4724
aven	-4725
▁seconds	-4726
▁increasingly	-4727
▁possibly	-4728
aded	-4729
▁Images	-4730
▁Open	-4731
▁degree	-4732
▁philos	-4733
▁fellow	-4734
rastructure	-4735
▁interact	-4736
Is	-4737
▁developers	-4738
hicles	-4739
▁rich	-4740
▁sch	-4741
▁cold	-4742
arks	-4743
▁changing	-4744
▁Foundation	-4745
run	-4746
▁balance	-4747
▁agencies	-4748
▁ultimately	-4749
▁losing	-4750
▁server	-4751
▁apparently	-4752
▁apply	-4753
▁twice	-4754
icted	-4755
▁lived	-4756
▁colle	-4757
▁tests	-4758
▁District	-4759
▁Chief	-4760
▁innov	-4761
▁ath	-4762
▁Ve	-4763
▁schedul	-4764
▁univers	-4765
▁Carolina	-4766
itect	-4767
ias	-4768
▁sounds	-4769
▁paying	-4770
▁yards	-4771
ruit	-4772
▁Federal	-4773
▁absolutely	-4774
▁healthy	-4775
illa	-4776
▁Whe	-4777
▁closer	-4778
▁princ	-4779
ashed	-4780
fe	-4781
roud	-4782
▁beautiful	-4783
▁Steve	-4784
▁sea	-4785
▁developing	-4786
▁writer	-4787
▁corporate	-4788
▁Second	-4789
▁equip	-4790
▁soldiers	-4791
▁possibility	-4792
▁religion	-4793
coh	-4794
ansion	-4795
ores	-4796
with	-4797
▁experts	-4798
▁AN	-4799
stein	-4800
▁Mass	-4801
▁humans	-4802
▁Egypt	-4803
▁Mel	-4804
▁Boston	-4805
▁expensive	-4806
▁USA	-4807
▁Free	-4808
▁seeking	-4809
pm	-4810
▁Though	-4811
▁Cru	-4812
▁units	-4813
▁Ro	-4814
▁apart	-4815
▁Middle	-4816
▁regarding	-4817
▁deploy	-4818
▁vast	-4819
▁authority	-4820
cious	-4821
▁solar	-4822
eal	-4823
acks	-4824
▁IN	-4825
▁Francisco	-4826
▁applications	-4827
▁Watch	-4828
▁Gal	-4829
▁imagine	-4830
aine	-4831
▁tast	-4832
sen	-4833
▁skin	-4834
▁adjust	-4835
▁sitting	-4836
▁vir	-4837
▁Sing	-4838
▁Lat	-4839
▁pil	-4840
▁Sign	-4841
▁Lee	-4842
▁heat	-4843
isted	-4844
▁flight	-4845
ologies	-4846
▁animal	-4847
atures	-4848
▁pit	-4849
▁elections	-4850
▁Top	-4851
▁vision	-4852
No	-4853
▁Mem	-4854
▁internal	-4855
▁RE	-4856
▁covered	-4857
▁university	-4858
!"	-4859
▁trail	-4860
rie	-4861
related	-4862
▁elim	-4863
▁gar	-4864
▁mut	-4865
▁capacity	-4866
▁lob	-4867
▁Book	-4868
▁attorney	-4869
▁Williams	-4870
look	-4871
apers	-4872
▁guarant	-4873
▁Ms	-4874
▁earn	-4875
▁Conserv	-4876
▁Spr	-4877
osen	-4878
▁responsibility	-4879
Americ	-4880
▁Each	-4881
▁Journal	-4882
lets	-4883
▁arms	-4884
▁surprise	-4885
▁Sant	-4886
▁Virginia	-4887
▁sport	-4888
▁teen	-4889
▁famous	-4890
▁fol	-4891
▁unless	-4892
enced	-4893
▁error	-4894
ortion	-4895
pire	-4896
▁Australian	-4897
oving	-4898
▁convention	-4899
▁Still	-4900
▁consult	-4901
▁Only	-4902
▁helps	-4903
▁odd	-4904
▁instit	-4905
▁tight	-4906
].	-4907
▁presented	-4908
rible	-4909
▁vehicles	-4910
▁fif	-4911
state	-4912
▁intended	-4913
uster	-4914
person	-4915
▁broken	-4916
▁rid	-4917
▁flow	-4918
▁Cath	-4919
▁Charl	-4920
▁occurred	-4921
▁fired	-4922
▁expert	-4923
▁Hist	-4924
▁estimated	-4925
▁PM	-4926
▁forms	-4927
ressive	-4928
▁streets	-4929
terday	-4930
useum	-4931
▁symb	-4932
▁clim	-4933
▁troops	-4934
anche	-4935
▁ton	-4936
porary	-4937
och	-4938
▁Guard	-4939
▁located	-4940
▁Show	-4941
▁Color	-4942
▁Rad	-4943
cel	-4944
▁bringing	-4945
idden	-4946
▁determine	-4947
▁Saud	-4948
under	-4949
▁Power	-4950
pret	-4951
hand	-4952
ayer	-4953
xual	-4954
alls	-4955
▁potentially	-4956
▁Paris	-4957
orage	-4958
▁prepared	-4959
▁sector	-4960
▁governments	-4961
▁seasons	-4962
▁About	-4963
uration	-4964
▁prove	-4965
▁boost	-4966
▁rapid	-4967
▁proposal	-4968
▁selling	-4969
▁stars	-4970
▁jail	-4971
▁plenty	-4972
▁baby	-4973
▁specifically	-4974
▁ruling	-4975
▁pieces	-4976
▁council	-4977
eder	-4978
endment	-4979
▁River	-4980
▁offering	-4981
▁nar	-4982
▁conclus	-4983
▁brow	-4984
▁stress	-4985
▁infrastructure	-4986
▁breat	-4987
▁vulner	-4988
oty	-4989
phas	-4990
▁Medic	-4991
▁refused	-4992
▁equipment	-4993
eds	-4994
mes	-4995
====	-4996
▁heav	-4997
▁Tra	-4998
▁faster	-4999
▁era	-5000
cean	-5001
▁prosecut	-5002
▁Andrew	-5003
yr	-5004
road	-5005
▁Work	-5006
▁secure	-5007
▁expressed	-5008
▁din	-5009
▁clin	-5010
▁voted	-5011
CH	-5012
noon	-5013
▁elected	-5014
▁dram	-5015
▁broke	-5016
▁hyp	-5017
For	-5018
▁NAS	-5019
▁Sum	-5020
▁challenges	-5021
▁retail	-5022
▁conducted	-5023
▁carbon	-5024
▁remove	-5025
▁Meanwhile	-5026
▁methods	-5027
▁Island	-5028
DP	-5029
▁Project	-5030
▁Nov	-5031
▁Hol	-5032
IV	-5033
▁random	-5034
▁prime	-5035
▁clot	-5036
▁equal	-5037
ader	-5038
▁positions	-5039
ureau	-5040
IM	-5041
▁factors	-5042
▁trig	-5043
▁voting	-5044
isher	-5045
▁Jackson	-5046
▁pointed	-5047
▁tourn	-5048
ini	-5049
▁sale	-5050
▁criticism	-5051
▁Phot	-5052
vey	-5053
▁cultural	-5054
▁Ok	-5055
▁originally	-5056
▁signs	-5057
▁combat	-5058
IP	-5059
▁facing	-5060
▁Where	-5061
,'	-5062
ocking	-5063
war	-5064
▁finish	-5065
▁weren	-5066
▁youth	-5067
▁Haw	-5068
▁remained	-5069
▁appearance	-5070
▁Labour	-5071
mail	-5072
▁percentage	-5073
▁stret	-5074
▁Pac	-5075
▁thank	-5076
ss	-5077
▁weapon	-5078
▁shall	-5079
▁involve	-5080
pired	-5081
lymp	-5082
ashion	-5083
▁Space	-5084
▁master	-5085
ENT	-5086
ean	-5087
▁Daily	-5088
▁shape	-5089
▁greatest	-5090
lyn	-5091
▁regime	-5092
▁affected	-5093
****	-5094
▁BBC	-5095
▁chemical	-5096
onom	-5097
▁minimum	-5098
olved	-5099
▁significantly	-5100
▁hurt	-5101
standing	-5102
ey	-5103
▁politicians	-5104
reens	-5105
olit	-5106
ils	-5107
▁herself	-5108
▁bought	-5109
▁determined	-5110
ours	-5111
rier	-5112
ighters	-5113
▁thr	-5114
▁argued	-5115
▁revenue	-5116
▁rent	-5117
▁Force	-5118
▁grew	-5119
▁handle	-5120
▁obviously	-5121
▁Human	-5122
▁plus	-5123
inating	-5124
▁Dou	-5125
▁Road	-5126
▁reduced	-5127
▁tele	-5128
etic	-5129
▁Maybe	-5130
▁supporting	-5131
▁hun	-5132
▁excited	-5133
▁Av	-5134
▁marg	-5135
▁wood	-5136
▁remaining	-5137
▁Director	-5138
rog	-5139
▁cas	-5140
▁indeed	-5141
▁purchase	-5142
▁contrast	-5143
▁films	-5144
▁wearing	-5145
▁Ma	-5146
▁appreci	-5147
▁panel	-5148
ownt	-5149
▁surprising	-5150
ION	-5151
▁considering	-5152
arp	-5153
▁recorded	-5154
▁switch	-5155
▁Turkey	-5156
▁leads	-5157
▁videos	-5158
essions	-5159
▁proced	-5160
▁opportunities	-5161
▁aid	-5162
▁minute	-5163
▁consumers	-5164
▁prospect	-5165
▁afternoon	-5166
gment	-5167
▁Hy	-5168
▁//	-5169
cohol	-5170
ht	-5171
()	-5172
▁glass	-5173
▁tact	-5174
▁Look	-5175
▁spring	-5176
▁AT	-5177
▁belong	-5178
▁Olymp	-5179
▁Rod	-5180
OW	-5181
▁shift	-5182
▁emergency	-5183
▁Supp	-5184
▁experienced	-5185
▁explos	-5186
▁identify	-5187
▁turning	-5188
▁Develop	-5189
▁agent	-5190
▁mode	-5191
▁Wal	-5192
hab	-5193
▁Fer	-5194
▁apps	-5195
▁aircraft	-5196
▁pulled	-5197
▁bound	-5198
ogue	-5199
▁motiv	-5200
▁hopes	-5201
▁Ron	-5202
▁seat	-5203
▁ends	-5204
▁basically	-5205
ruption	-5206
▁depart	-5207
▁seriously	-5208
▁listen	-5209
▁accident	-5210
ller	-5211
▁Down	-5212
▁package	-5213
plom	-5214
ran	-5215
▁completed	-5216
▁evening	-5217
▁treated	-5218
mm	-5219
▁experiment	-5220
▁Ol	-5221
▁Penn	-5222
▁visual	-5223
▁Techn	-5224
▁privacy	-5225
LE	-5226
hered	-5227
▁Bus	-5228
▁ast	-5229
▁Lin	-5230
▁lots	-5231
▁combined	-5232
,[	-5233
="	-5234
ucks	-5235
▁concent	-5236
▁subs	-5237
▁Somet	-5238
▁Ohio	-5239
▁talked	-5240
▁passing	-5241
▁plants	-5242
apping	-5243
▁dim	-5244
▁mort	-5245
osite	-5246
▁differences	-5247
nell	-5248
uts	-5249
▁copyright	-5250
lo	-5251
ivered	-5252
▁widely	-5253
▁iPh	-5254
▁zone	-5255
▁reporters	-5256
▁element	-5257
▁dismiss	-5258
▁struggle	-5259
life	-5260
▁sad	-5261
▁discl	-5262
top	-5263
▁suppl	-5264
▁Wood	-5265
▁Vict	-5266
▁Sher	-5267
raud	-5268
▁Squ	-5269
▁Gen	-5270
▁collabor	-5271
▁Week	-5272
class	-5273
oral	-5274
▁liberal	-5275
▁trouble	-5276
▁cart	-5277
▁powers	-5278
ita	-5279
▁Science	-5280
▁opposed	-5281
▁upgr	-5282
▁hol	-5283
▁pages	-5284
ensions	-5285
▁advance	-5286
▁subm	-5287
▁construct	-5288
▁suit	-5289
▁Kim	-5290
▁reference	-5291
oking	-5292
▁attempts	-5293
gent	-5294
pet	-5295
estival	-5296
▁System	-5297
that	-5298
abilities	-5299
ket	-5300
▁frust	-5301
▁default	-5302
zer	-5303
sts	-5304
▁typically	-5305
▁burn	-5306
▁disappoint	-5307
lines	-5308
▁tun	-5309
▁proceed	-5310
▁AC	-5311
anged	-5312
▁reaction	-5313
mond	-5314
▁Thanks	-5315
▁Thank	-5316
▁Again	-5317
uous	-5318
▁writes	-5319
▁Grand	-5320
ato	-5321
▁storm	-5322
▁denied	-5323
erved	-5324
▁responded	-5325
▁Dani	-5326
rawn	-5327
▁Its	-5328
▁calcul	-5329
▁coord	-5330
▁Jul	-5331
ributed	-5332
▁ment	-5333
asp	-5334
PD	-5335
mosp	-5336
▁approved	-5337
▁instruct	-5338
▁grab	-5339
Tr	-5340
▁distance	-5341
UT	-5342
col	-5343
▁factor	-5344
▁Best	-5345
▁Life	-5346
▁quiet	-5347
aints	-5348
▁id	-5349
▁caption	-5350
▁CNN	-5351
care	-5352
▁entertain	-5353
▁Seattle	-5354
My	-5355
▁appeal	-5356
aped	-5357
▁Ill	-5358
idel	-5359
esters	-5360
▁mal	-5361
▁valid	-5362
▁pitch	-5363
▁renew	-5364
▁enemy	-5365
ffee	-5366
▁sets	-5367
▁institutions	-5368
▁quant	-5369
▁matters	-5370
▁stands	-5371
respond	-5372
▁bodies	-5373
▁advert	-5374
razy	-5375
▁Right	-5376
▁Afghanistan	-5377
▁batt	-5378
▁Rev	-5379
▁ML	-5380
▁optim	-5381
elly	-5382
▁confidence	-5383
▁sac	-5384
▁confident	-5385
▁tradition	-5386
▁Scot	-5387
▁Far	-5388
ompl	-5389
▁capable	-5390
▁mand	-5391
▁explo	-5392
▁Note	-5393
oken	-5394
adow	-5395
▁creation	-5396
▁Braz	-5397
▁broadcast	-5398
Sh	-5399
▁unable	-5400
▁diss	-5401
▁prompt	-5402
▁Ire	-5403
▁reportedly	-5404
ym	-5405
employ	-5406
▁coast	-5407
IG	-5408
▁Upd	-5409
▁perspective	-5410
free	-5411
▁fly	-5412
▁Four	-5413
▁loved	-5414
▁weather	-5415
obe	-5416
▁numerous	-5417
▁gra	-5418
apter	-5419
isters	-5420
▁cloud	-5421
▁Christmas	-5422
ache	-5423
▁severe	-5424
▁declined	-5425
rist	-5426
unte	-5427
▁transition	-5428
▁satisf	-5429
urb	-5430
abin	-5431
▁flag	-5432
▁Hen	-5433
▁Stan	-5434
▁Saudi	-5435
▁shouldn	-5436
▁forget	-5437
▁advice	-5438
▁newspaper	-5439
▁Carl	-5440
▁faces	-5441
▁explains	-5442
▁technical	-5443
▁AD	-5444
li	-5445
▁pictures	-5446
▁route	-5447
▁ordered	-5448
▁suffered	-5449
▁craft	-5450
▁messages	-5451
▁ongoing	-5452
▁crimes	-5453
▁violent	-5454
▁Str	-5455
▁proud	-5456
▁declared	-5457
▁Michigan	-5458
▁movies	-5459
▁admitted	-5460
▁GM	-5461
▁reporting	-5462
ilty	-5463
▁connected	-5464
▁approx	-5465
▁Long	-5466
ternal	-5467
▁bull	-5468
ishes	-5469
▁delivered	-5470
▁giant	-5471
rd	-5472
▁experiences	-5473
astern	-5474
angers	-5475
▁discrim	-5476
▁van	-5477
▁injured	-5478
▁Vol	-5479
▁guns	-5480
▁cann	-5481
▁lit	-5482
▁forg	-5483
▁excell	-5484
pass	-5485
▁delay	-5486
▁circumst	-5487
▁cooper	-5488
,’	-5489
▁substant	-5490
dule	-5491
fere	-5492
▁rail	-5493
▁publicly	-5494
ampion	-5495
▁Gar	-5496
▁updates	-5497
▁Hou	-5498
▁thoughts	-5499
▁picked	-5500
ionally	-5501
cos	-5502
▁Hel	-5503
▁findings	-5504
▁emails	-5505
▁eval	-5506
▁accompl	-5507
unction	-5508
▁Mount	-5509
▁Ukraine	-5510
▁editor	-5511
▁Romney	-5512
can	-5513
▁lawyer	-5514
▁emphas	-5515
▁readers	-5516
▁prin	-5517
▁Muslims	-5518
▁\	-5519
▁rot	-5520
called	-5521
gia	-5522
▁confirm	-5523
▁graph	-5524
▁drivers	-5525
▁leaves	-5526
▁session	-5527
▁Walk	-5528
▁perman	-5529
▁Cop	-5530
abled	-5531
rant	-5532
▁architect	-5533
▁statements	-5534
host	-5535
nergy	-5536
▁married	-5537
▁appropriate	-5538
ulations	-5539
oves	-5540
▁Blue	-5541
▁gather	-5542
rum	-5543
▁activists	-5544
▁PR	-5545
▁tech	-5546
essor	-5547
▁Sov	-5548
▁Prem	-5549
ellow	-5550
▁ID	-5551
▁armed	-5552
long	-5553
uations	-5554
▁auth	-5555
▁terrorist	-5556
▁edge	-5557
rid	-5558
▁dial	-5559
enda	-5560
hew	-5561
▁talent	-5562
▁quarterback	-5563
ourney	-5564
ooth	-5565
mates	-5566
▁ourselves	-5567
▁walking	-5568
ansas	-5569
▁realize	-5570
▁buildings	-5571
▁centre	-5572
▁argue	-5573
▁exercise	-5574
▁allegations	-5575
▁crack	-5576
enture	-5577
▁legit	-5578
▁label	-5579
▁Lake	-5580
▁debut	-5581
▁shop	-5582
▁agents	-5583
▁patient	-5584
▁injuries	-5585
▁practices	-5586
▁Elect	-5587
▁filled	-5588
▁missed	-5589
▁Ann	-5590
▁diplom	-5591
Tube	-5592
So	-5593
▁secretary	-5594
▁Exp	-5595
▁Ireland	-5596
PR	-5597
▁transform	-5598
▁effectively	-5599
▁franch	-5600
▁Swed	-5601
▁examples	-5602
▁Sky	-5603
tion	-5604
▁TO	-5605
▁bond	-5606
▁artist	-5607
▁Year	-5608
▁moral	-5609
inent	-5610
▁pool	-5611
▁contains	-5612
▁wear	-5613
▁god	-5614
▁thinks	-5615
▁Barack	-5616
▁governor	-5617
▁objects	-5618
▁Aff	-5619
uls	-5620
▁essentially	-5621
▁Columb	-5622
agers	-5623
▁Lib	-5624
▁initially	-5625
▁Ram	-5626
resents	-5627
▁Three	-5628
aza	-5629
orse	-5630
▁ISIS	-5631
▁Next	-5632
▁flo	-5633
▁scheduled	-5634
orders	-5635
▁playoff	-5636
icing	-5637
inals	-5638
▁tree	-5639
▁dynam	-5640
amental	-5641
▁View	-5642
▁warned	-5643
▁fish	-5644
acter	-5645
▁causes	-5646
iat	-5647
▁client	-5648
▁expansion	-5649
cons	-5650
▁Story	-5651
▁announcement	-5652
▁Sar	-5653
▁rain	-5654
asure	-5655
▁subsequ	-5656
▁Cub	-5657
▁ing	-5658
arters	-5659
enger	-5660
ala	-5661
▁motor	-5662
▁Polit	-5663
▁yesterday	-5664
▁desire	-5665
▁listed	-5666
ounded	-5667
▁Author	-5668
▁magazine	-5669
▁Brazil	-5670
ador	-5671
orry	-5672
TV	-5673
esome	-5674
▁Ariz	-5675
▁athlet	-5676
edy	-5677
▁suc	-5678
▁iPhone	-5679
ilit	-5680
▁faced	-5681
▁materials	-5682
illance	-5683
▁necessarily	-5684
▁Home	-5685
▁explan	-5686
▁linked	-5687
▁hell	-5688
ette	-5689
▁pure	-5690
▁Perhaps	-5691
▁incor	-5692
▁advanced	-5693
▁performed	-5694
▁datab	-5695
▁sam	-5696
uild	-5697
▁doctor	-5698
▁Sports	-5699
▁increases	-5700
▁abandon	-5701
▁ske	-5702
▁spons	-5703
▁Aut	-5704
▁myster	-5705
▁accepted	-5706
▁facts	-5707
▁nearby	-5708
▁Wik	-5709
▁neither	-5710
▁Board	-5711
▁pra	-5712
▁joint	-5713
▁surprised	-5714
water	-5715
▁Card	-5716
▁everybody	-5717
▁chart	-5718
▁offense	-5719
Le	-5720
▁Further	-5721
▁bare	-5722
▁Contin	-5723
rip	-5724
▁radical	-5725
▁Div	-5726
▁atmosp	-5727
▁Boy	-5728
▁lawsuit	-5729
▁Enter	-5730
▁consequences	-5731
▁nations	-5732
▁begins	-5733
▁NBA	-5734
▁Gra	-5735
▁Share	-5736
sembly	-5737
▁resolution	-5738
▁Eric	-5739
▁guilty	-5740
athan	-5741
▁adds	-5742
▁mir	-5743
▁moves	-5744
],	-5745
▁Club	-5746
▁ride	-5747
▁interpret	-5748
▁Houston	-5749
▁decre	-5750
▁follows	-5751
▁fill	-5752
▁improved	-5753
▁Ell	-5754
▁represents	-5755
▁subscrib	-5756
▁shots	-5757
▁distribution	-5758
▁democracy	-5759
▁Econom	-5760
▁Brook	-5761
TM	-5762
▁investors	-5763
▁warm	-5764
▁AL	-5765
law	-5766
▁Di	-5767
▁alcohol	-5768
▁fort	-5769
▁Take	-5770
II	-5771
▁restaurant	-5772
▁withd	-5773
▁plane	-5774
▁Men	-5775
▁pushed	-5776
whel	-5777
▁remark	-5778
▁brings	-5779
▁applied	-5780
▁Colorado	-5781
▁Fam	-5782
▁flood	-5783
otic	-5784
itors	-5785
ERS	-5786
▁manufacture	-5787
irty	-5788
▁Fil	-5789
▁creative	-5790
▁threats	-5791
▁receiving	-5792
▁Young	-5793
▁Korean	-5794
▁songs	-5795
▁rein	-5796
▁rising	-5797
▁vari	-5798
irds	-5799
▁config	-5800
▁af	-5801
illy	-5802
▁Mot	-5803
▁YouTube	-5804
▁stood	-5805
▁philosop	-5806
▁Fig	-5807
▁totally	-5808
▁boys	-5809
▁Vide	-5810
▁storage	-5811
usal	-5812
▁scored	-5813
IR	-5814
▁trib	-5815
▁DC	-5816
▁contest	-5817
▁native	-5818
▁historical	-5819
▁enh	-5820
▁sought	-5821
▁phen	-5822
▁articles	-5823
▁behavi	-5824
▁scr	-5825
▁highlight	-5826
▁unlikely	-5827
▁roughly	-5828
▁row	-5829
▁Asia	-5830
▁entry	-5831
duc	-5832
burg	-5833
word	-5834
▁Holly	-5835
▁output	-5836
▁sav	-5837
▁square	-5838
▁heads	-5839
fortunately	-5840
▁bright	-5841
▁combination	-5842
▁discussed	-5843
▁entered	-5844
level	-5845
alty	-5846
▁consistent	-5847
abb	-5848
▁sem	-5849
▁island	-5850
TA	-5851
▁Cy	-5852
rich	-5853
▁networks	-5854
▁Women	-5855
▁protests	-5856
▁alt	-5857
▁colleagues	-5858
▁consumer	-5859
▁household	-5860
▁Jews	-5861
▁boss	-5862
▁Davis	-5863
▁Stephen	-5864
▁succeed	-5865
▁Die	-5866
icious	-5867
▁correspond	-5868
▁Kevin	-5869
▁Charles	-5870
▁resident	-5871
▁parliament	-5872
▁classes	-5873
▁stores	-5874
▁Rights	-5875
▁Old	-5876
▁warning	-5877
▁lie	-5878
▁button	-5879
▁anywhere	-5880
▁Mic	-5881
▁input	-5882
▁resc	-5883
▁younger	-5884
stood	-5885
▁Putin	-5886
▁split	-5887
▁heavily	-5888
▁Van	-5889
▁deaths	-5890
▁library	-5891
▁Games	-5892
born	-5893
▁bike	-5894
▁fairly	-5895
▁classic	-5896
▁breaking	-5897
OD	-5898
▁temperature	-5899
▁existence	-5900
MA	-5901
▁Du	-5902
▁lock	-5903
oked	-5904
▁Wild	-5905
▁currency	-5906
acle	-5907
▁allegedly	-5908
▁Bat	-5909
▁prohib	-5910
▁facility	-5911
▁rally	-5912
▁targets	-5913
▁links	-5914
ician	-5915
▁marketing	-5916
▁sym	-5917
arden	-5918
andal	-5919
▁Ins	-5920
▁campus	-5921
▁buying	-5922
greg	-5923
▁fraud	-5924
▁plot	-5925
▁doctors	-5926
▁replaced	-5927
▁zero	-5928
▁manage	-5929
▁symbol	-5930
▁metal	-5931
PU	-5932
iques	-5933
ican	-5934
▁Tay	-5935
hetic	-5936
▁Cruz	-5937
▁Child	-5938
▁regulations	-5939
▁Way	-5940
▁shif	-5941
▁functions	-5942
▁importance	-5943
▁Brad	-5944
▁snow	-5945
▁confront	-5946
▁favour	-5947
pan	-5948
▁vice	-5949
▁promise	-5950
▁Max	-5951
▁Arizona	-5952
▁defined	-5953
cho	-5954
▁hoping	-5955
amin	-5956
▁adults	-5957
inem	-5958
▁flat	-5959
▁Mat	-5960
▁versions	-5961
▁waste	-5962
west	-5963
▁nav	-5964
▁somewhat	-5965
omin	-5966
▁expression	-5967
▁Cast	-5968
▁hardware	-5969
▁Ital	-5970
▁motion	-5971
▁Tit	-5972
▁holds	-5973
▁empt	-5974
▁downt	-5975
LA	-5976
▁essential	-5977
SS	-5978
▁sees	-5979
▁Defense	-5980
▁string	-5981
▁cere	-5982
----------------	-5983
agan	-5984
▁laugh	-5985
▁Valley	-5986
▁illust	-5987
▁opposite	-5988
▁harder	-5989
▁industrial	-5990
▁tow	-5991
▁blow	-5992
▁rum	-5993
▁customer	-5994
zy	-5995
onna	-5996
▁Palestinian	-5997
▁bug	-5998
▁moments	-5999
▁CIA	-6000
▁Energy	-6001
▁Jesus	-6002
▁acknowled	-6003
▁chain	-6004
▁Tal	-6005
▁Jord	-6006
▁bag	-6007
uzz	-6008
▁fewer	-6009
▁schol	-6010
etroit	-6011
edd	-6012
▁tom	-6013
▁IP	-6014
▁closely	-6015
chen	-6016
▁relevant	-6017
▁volunte	-6018
▁division	-6019
olve	-6020
▁Arch	-6021
▁squad	-6022
▁acts	-6023
▁hat	-6024
ena	-6025
▁syn	-6026
▁emotional	-6027
▁Pan	-6028
▁opponent	-6029
▁sick	-6030
gas	-6031
ulous	-6032
▁returns	-6033
hips	-6034
ologist	-6035
comm	-6036
▁Lord	-6037
▁intention	-6038
▁Soviet	-6039
▁grown	-6040
▁Daniel	-6041
twitter	-6042
▁evolution	-6043
▁wins	-6044
▁bon	-6045
efully	-6046
ensus	-6047
▁fashion	-6048
power	-6049
▁immediate	-6050
▁NY	-6051
▁tournament	-6052
va	-6053
▁excellent	-6054
ocket	-6055
▁circumstances	-6056
▁detailed	-6057
▁hur	-6058
iger	-6059
▁featured	-6060
▁earned	-6061
▁decline	-6062
▁unus	-6063
▁Camer	-6064
▁Wat	-6065
▁Stand	-6066
▁isol	-6067
▁Java	-6068
kel	-6069
▁Py	-6070
ockey	-6071
▁mine	-6072
▁immigrants	-6073
▁cheap	-6074
▁pip	-6075
▁termin	-6076
oma	-6077
▁crazy	-6078
▁flu	-6079
▁suffering	-6080
▁signing	-6081
▁carrying	-6082
▁Fort	-6083
▁Miller	-6084
▁mechanism	-6085
erves	-6086
utch	-6087
erry	-6088
▁artists	-6089
friend	-6090
▁relationships	-6091
▁tiny	-6092
▁extent	-6093
TS	-6094
▁participants	-6095
▁embr	-6096
▁describe	-6097
▁Invest	-6098
▁lies	-6099
▁Catholic	-6100
ellect	-6101
▁cycle	-6102
▁wave	-6103
xy	-6104
atell	-6105
▁controversial	-6106
▁comfortable	-6107
▁pushing	-6108
▁alongside	-6109
nic	-6110
chers	-6111
▁experim	-6112
▁trick	-6113
▁repeatedly	-6114
game	-6115
certain	-6116
awa	-6117
▁cert	-6118
▁Real	-6119
▁acting	-6120
▁upcoming	-6121
▁guide	-6122
▁sharing	-6123
▁Wilson	-6124
▁kinds	-6125
▁authors	-6126
▁attempted	-6127
▁commitment	-6128
▁fundamental	-6129
▁newslet	-6130
▁Class	-6131
▁efficient	-6132
▁frequently	-6133
▁formed	-6134
▁owned	-6135
▁competitive	-6136
▁updated	-6137
▁pregn	-6138
anes	-6139
ocratic	-6140
▁regional	-6141
▁referred	-6142
▁Wars	-6143
▁hotel	-6144
▁SC	-6145
▁column	-6146
▁NASA	-6147
nam	-6148
▁ancient	-6149
▁Finally	-6150
uated	-6151
style	-6152
anish	-6153
▁Dam	-6154
bar	-6155
▁wire	-6156
▁egg	-6157
▁schedule	-6158
def	-6159
IF	-6160
▁instru	-6161
▁kit	-6162
ta	-6163
dis	-6164
▁urban	-6165
▁Bas	-6166
bel	-6167
▁struck	-6168
▁pled	-6169
▁meat	-6170
▁dedicated	-6171
▁mouth	-6172
▁sentence	-6173
hus	-6174
▁manner	-6175
▁strange	-6176
▁du	-6177
▁mainstream	-6178
uable	-6179
▁journey	-6180
▁serving	-6181
▁agenda	-6182
▁realized	-6183
▁Did	-6184
▁Detroit	-6185
▁End	-6186
▁chairman	-6187
foot	-6188
▁studio	-6189
▁targeted	-6190
▁inspired	-6191
▁femin	-6192
iami	-6193
Get	-6194
▁intent	-6195
rome	-6196
▁orders	-6197
▁depth	-6198
▁observ	-6199
▁suicide	-6200
▁bat	-6201
▁battery	-6202
▁subsid	-6203
▁surveillance	-6204
▁Ford	-6205
▁desk	-6206
iveness	-6207
▁posts	-6208
▁teachers	-6209
',	-6210
▁Among	-6211
▁ring	-6212
▁opponents	-6213
▁liqu	-6214
str	-6215
ographic	-6216
▁virtual	-6217
▁assets	-6218
▁Check	-6219
weight	-6220
▁usual	-6221
▁Love	-6222
▁causing	-6223
▁Click	-6224
▁Land	-6225
▁reput	-6226
▁congress	-6227
▁universe	-6228
▁medic	-6229
▁PS	-6230
rison	-6231
▁coffee	-6232
▁sister	-6233
▁overwhel	-6234
rive	-6235
▁protected	-6236
New	-6237
FP	-6238
ora	-6239
▁watched	-6240
▁knowing	-6241
▁approval	-6242
▁surrounding	-6243
▁Brian	-6244
▁deeply	-6245
▁Adam	-6246
▁walked	-6247
ati	-6248
ko	-6249
▁latter	-6250
She	-6251
adel	-6252
▁channel	-6253
phy	-6254
▁winter	-6255
▁Win	-6256
▁Inf	-6257
▁folks	-6258
Con	-6259
▁aside	-6260
▁fasc	-6261
▁sand	-6262
▁passion	-6263
sex	-6264
▁communication	-6265
▁rape	-6266
▁Turn	-6267
▁narr	-6268
ugh	-6269
gor	-6270
luding	-6271
OC	-6272
▁literally	-6273
umber	-6274
▁exciting	-6275
▁Ep	-6276
▁hall	-6277
▁remote	-6278
▁simpl	-6279
▁precise	-6280
▁risks	-6281
▁sending	-6282
▁noticed	-6283
woman	-6284
▁unemploy	-6285
▁Dun	-6286
▁basket	-6287
azi	-6288
edia	-6289
▁explore	-6290
iciency	-6291
▁Hollywood	-6292
▁Italy	-6293
aze	-6294
rence	-6295
gery	-6296
All	-6297
▁properties	-6298
▁refugees	-6299
▁stream	-6300
▁Organ	-6301
otal	-6302
▁Sk	-6303
▁alive	-6304
▁Jr	-6305
▁wal	-6306
▁locations	-6307
▁tort	-6308
▁Gall	-6309
▁dealing	-6310
▁promised	-6311
▁attacked	-6312
▁Water	-6313
▁exhib	-6314
▁wake	-6315
▁Special	-6316
▁observed	-6317
ORE	-6318
▁gap	-6319
pool	-6320
▁sweet	-6321
▁west	-6322
sole	-6323
▁Conf	-6324
▁franchise	-6325
▁OF	-6326
▁blame	-6327
▁Kn	-6328
dit	-6329
▁defeat	-6330
▁skill	-6331
▁protesters	-6332
ii	-6333
▁requirements	-6334
▁wage	-6335
abis	-6336
▁sky	-6337
onymous	-6338
lock	-6339
▁Light	-6340
▁Administ	-6341
▁welcome	-6342
acking	-6343
▁neut	-6344
▁mistake	-6345
ulture	-6346
▁eating	-6347
▁Jordan	-6348
▁Steven	-6349
ingu	-6350
▁impressive	-6351
▁Rog	-6352
▁terrorism	-6353
rations	-6354
▁Georgia	-6355
▁king	-6356
▁reward	-6357
boy	-6358
▁gang	-6359
▁crash	-6360
ceived	-6361
▁Dig	-6362
▁involving	-6363
▁Bell	-6364
arn	-6365
esc	-6366
Ar	-6367
▁Night	-6368
▁puts	-6369
▁Call	-6370
▁tested	-6371
▁Miami	-6372
▁sustain	-6373
▁extended	-6374
▁proof	-6375
▁properly	-6376
▁domin	-6377
rors	-6378
▁Unfortunately	-6379
▁forth	-6380
▁matches	-6381
▁narrow	-6382
▁retire	-6383
▁fixed	-6384
▁Cam	-6385
▁volume	-6386
▁northern	-6387
▁destroyed	-6388
▁approximately	-6389
▁anyway	-6390
▁unknown	-6391
avor	-6392
print	-6393
▁Ret	-6394
▁territory	-6395
▁Spanish	-6396
▁sho	-6397
▁Attorney	-6398
▁conver	-6399
’.	-6400
▁Agency	-6401
allas	-6402
▁requests	-6403
▁Irish	-6404
stone	-6405
▁Society	-6406
▁dry	-6407
ixt	-6408
........	-6409
ensity	-6410
▁phenomen	-6411
▁promote	-6412
▁diet	-6413
owered	-6414
American	-6415
▁Lew	-6416
▁Labor	-6417
▁selection	-6418
▁height	-6419
▁Test	-6420
lv	-6421
▁discover	-6422
▁MS	-6423
▁Disney	-6424
▁shel	-6425
apse	-6426
▁suddenly	-6427
▁chose	-6428
acc	-6429
▁teacher	-6430
▁moder	-6431
▁Ut	-6432
▁CD	-6433
▁Nick	-6434
▁typical	-6435
▁abortion	-6436
▁deals	-6437
GBT	-6438
▁Vis	-6439
▁nomine	-6440
▁pal	-6441
▁Key	-6442
▁license	-6443
verty	-6444
itarian	-6445
ipl	-6446
▁disag	-6447
▁Gi	-6448
ether	-6449
anges	-6450
▁worried	-6451
oming	-6452
ums	-6453
inson	-6454
ml	-6455
▁east	-6456
▁selected	-6457
▁supports	-6458
▁theme	-6459
▁Jersey	-6460
▁slowly	-6461
▁diagn	-6462
ua	-6463
▁sample	-6464
▁Company	-6465
▁Cat	-6466
▁topic	-6467
▁Ah	-6468
▁Bru	-6469
alle	-6470
▁NE	-6471
▁merely	-6472
▁Network	-6473
▁recognize	-6474
▁facilities	-6475
▁oblig	-6476
▁poverty	-6477
▁likes	-6478
▁Victor	-6479
oration	-6480
dro	-6481
aser	-6482
▁Which	-6483
▁fees	-6484
▁maximum	-6485
To	-6486
▁scheme	-6487
▁Senator	-6488
gender	-6489
▁Moore	-6490
▁Dark	-6491
▁NHL	-6492
ogan	-6493
▁allies	-6494
▁assume	-6495
po	-6496
▁adapt	-6497
▁AR	-6498
▁Turk	-6499
▁wid	-6500
▁equival	-6501
▁dress	-6502
▁honor	-6503
▁critics	-6504
ayers	-6505
asks	-6506
redit	-6507
▁journalists	-6508
▁ped	-6509
▁rub	-6510
▁Business	-6511
How	-6512
▁arguments	-6513
celer	-6514
▁somehow	-6515
oster	-6516
▁prote	-6517
▁Asian	-6518
▁Dar	-6519
axy	-6520
▁limits	-6521
DS	-6522
▁village	-6523
▁format	-6524
you	-6525
▁communications	-6526
▁constant	-6527
tle	-6528
ads	-6529
raid	-6530
▁Josh	-6531
▁controlled	-6532
▁understood	-6533
▁harass	-6534
fire	-6535
aug	-6536
ocation	-6537
▁exposed	-6538
▁emissions	-6539
▁deck	-6540
▁personally	-6541
▁bunch	-6542
▁transp	-6543
▁Oper	-6544
▁Hun	-6545
▁strongly	-6546
▁profit	-6547
▁sole	-6548
▁phase	-6549
ao	-6550
cow	-6551
▁bid	-6552
▁pic	-6553
enders	-6554
▁falling	-6555
▁resistance	-6556
▁Review	-6557
▁obtained	-6558
▁Scotland	-6559
▁champion	-6560
owa	-6561
▁Care	-6562
▁cutting	-6563
obile	-6564
▁somewhere	-6565
▁polls	-6566
▁regions	-6567
▁winner	-6568
asts	-6569
▁encourage	-6570
▁condem	-6571
▁Minnes	-6572
▁Coll	-6573
▁Sea	-6574
▁punish	-6575
▁flex	-6576
▁item	-6577
▁meetings	-6578
list	-6579
▁truck	-6580
▁drag	-6581
▁OS	-6582
pes	-6583
▁definition	-6584
▁electricity	-6585
cers	-6586
▁Educ	-6587
zens	-6588
▁Source	-6589
intend	-6590
▁decent	-6591
▁database	-6592
sters	-6593
▁Thus	-6594
▁comparison	-6595
▁deleg	-6596
onic	-6597
osis	-6598
▁employee	-6599
ivery	-6600
▁comprom	-6601
▁evil	-6602
name	-6603
▁Sn	-6604
▁Never	-6605
pected	-6606
▁Nations	-6607
▁Fre	-6608
▁escape	-6609
iform	-6610
Al	-6611
▁trees	-6612
▁Such	-6613
oric	-6614
▁developer	-6615
▁desper	-6616
▁inqu	-6617
▁southern	-6618
▁anx	-6619
▁Come	-6620
▁Joseph	-6621
▁claiming	-6622
▁ruled	-6623
▁empty	-6624
▁bear	-6625
▁bench	-6626
▁Civil	-6627
orted	-6628
▁fifth	-6629
arity	-6630
aire	-6631
▁stim	-6632
lls	-6633
▁Cross	-6634
▁gotten	-6635
▁Anth	-6636
VER	-6637
▁payments	-6638
▁stronger	-6639
▁Academ	-6640
▁Has	-6641
▁Tem	-6642
▁goods	-6643
▁DNA	-6644
▁Taylor	-6645
▁directed	-6646
▁ideal	-6647
▁Run	-6648
▁fuck	-6649
▁Indeed	-6650
▁vacc	-6651
▁Foreign	-6652
▁stretch	-6653
▁driven	-6654
▁officially	-6655
▁Os	-6656
▁purposes	-6657
ciples	-6658
▁Tony	-6659
▁captured	-6660
▁ties	-6661
▁chosen	-6662
han	-6663
▁finds	-6664
▁Kelly	-6665
alo	-6666
▁extensive	-6667
NC	-6668
▁threatened	-6669
▁spin	-6670
▁unw	-6671
▁reveal	-6672
▁Services	-6673
▁retain	-6674
▁amounts	-6675
iner	-6676
igation	-6677
▁rejected	-6678
▁fold	-6679
▁hits	-6680
▁perfectly	-6681
▁Minnesota	-6682
▁Italian	-6683
%)	-6684
▁fighters	-6685
▁Dallas	-6686
▁icon	-6687
▁trading	-6688
▁ending	-6689
▁answers	-6690
▁seats	-6691
▁incl	-6692
regon	-6693
inations	-6694
sea	-6695
eping	-6696
▁primarily	-6697
▁reasonable	-6698
▁parking	-6699
▁Hot	-6700
wan	-6701
▁NBC	-6702
▁Program	-6703
irms	-6704
▁Spain	-6705
▁drawn	-6706
▁pod	-6707
▁rival	-6708
Cl	-6709
rary	-6710
asters	-6711
▁brew	-6712
▁intellect	-6713
▁ble	-6714
▁dogs	-6715
ura	-6716
▁technologies	-6717
▁colon	-6718
owed	-6719
▁Orig	-6720
▁rig	-6721
▁choices	-6722
▁actor	-6723
icken	-6724
▁sight	-6725
▁somebody	-6726
izz	-6727
▁thread	-6728
▁Dead	-6729
▁Bowl	-6730
▁province	-6731
▁engage	-6732
▁payment	-6733
essed	-6734
▁solutions	-6735
▁constantly	-6736
▁Championship	-6737
▁Southern	-6738
▁courts	-6739
▁houses	-6740
▁regularly	-6741
▁Ult	-6742
▁elsewhere	-6743
▁mayor	-6744
UR	-6745
▁baseball	-6746
▁Following	-6747
▁boot	-6748
isan	-6749
▁soul	-6750
▁awesome	-6751
▁narrative	-6752
▁founder	-6753
▁param	-6754
▁employment	-6755
rett	-6756
▁estimates	-6757
▁nobody	-6758
▁constit	-6759
▁flying	-6760
▁Have	-6761
▁contributed	-6762
▁distinct	-6763
Pro	-6764
vy	-6765
▁anymore	-6766
agram	-6767
fast	-6768
▁resulting	-6769
▁aspects	-6770
▁keeps	-6771
▁Ray	-6772
▁outcome	-6773
▁encoun	-6774
▁coalition	-6775
▁mixed	-6776
▁fields	-6777
post	-6778
otten	-6779
▁tank	-6780
▁murd	-6781
▁clients	-6782
."[	-6783
▁loan	-6784
▁incredible	-6785
rehens	-6786
▁profile	-6787
▁worldwide	-6788
▁McG	-6789
▁Rick	-6790
▁History	-6791
Our	-6792
▁concluded	-6793
##	-6794
▁letters	-6795
▁bills	-6796
▁Constitution	-6797
▁contem	-6798
▁apartment	-6799
▁Start	-6800
▁components	-6801
▁Pay	-6802
▁Id	-6803
▁signal	-6804
ras	-6805
▁reporter	-6806
▁Major	-6807
▁crucial	-6808
▁Make	-6809
▁registered	-6810
▁exists	-6811
▁Sever	-6812
▁incredibly	-6813
▁situations	-6814
▁unp	-6815
▁Balt	-6816
otes	-6817
▁Food	-6818
icer	-6819
▁assistant	-6820
ship	-6821
▁continuing	-6822
onsin	-6823
▁drinking	-6824
▁atmosphere	-6825
erm	-6826
▁informed	-6827
▁Foot	-6828
▁generate	-6829
▁Global	-6830
▁routine	-6831
▁machines	-6832
▁kil	-6833
isconsin	-6834
▁feedback	-6835
▁Lo	-6836
▁controls	-6837
iscal	-6838
earing	-6839
▁category	-6840
▁accurate	-6841
▁weird	-6842
▁demands	-6843
lder	-6844
▁Full	-6845
Bl	-6846
▁tied	-6847
▁dozen	-6848
▁paint	-6849
▁Greg	-6850
▁($	-6851
▁Parliament	-6852
▁enthus	-6853
▁Oregon	-6854
▁conven	-6855
▁ticket	-6856
emen	-6857
lights	-6858
▁dollar	-6859
▁Linux	-6860
apes	-6861
▁stead	-6862
▁estate	-6863
▁Saf	-6864
▁terrible	-6865
ilarly	-6866
▁gaming	-6867
▁returning	-6868
▁upper	-6869
rage	-6870
▁stuck	-6871
▁rus	-6872
▁raising	-6873
rates	-6874
▁angry	-6875
▁innoc	-6876
▁Roman	-6877
▁Moscow	-6878
▁explanation	-6879
▁proved	-6880
▁complaint	-6881
▁Mu	-6882
car	-6883
▁newly	-6884
▁bitcoin	-6885
▁recovery	-6886
acked	-6887
▁Nation	-6888
▁penalty	-6889
▁represented	-6890
▁LGBT	-6891
▁infect	-6892
▁compens	-6893
adelph	-6894
▁Live	-6895
▁Jason	-6896
ali	-6897
inding	-6898
▁imper	-6899
▁IT	-6900
inity	-6901
▁Pacific	-6902
▁roster	-6903
▁enemies	-6904
▁aggressive	-6905
▁conclusion	-6906
▁chances	-6907
▁county	-6908
anny	-6909
▁Bull	-6910
▁gro	-6911
▁excess	-6912
▁lawmakers	-6913
▁myth	-6914
▁shares	-6915
anchester	-6916
▁manip	-6917
esy	-6918
ifer	-6919
▁programming	-6920
▁veteran	-6921
▁writers	-6922
▁consumption	-6923
lers	-6924
▁ads	-6925
▁conspir	-6926
▁granted	-6927
▁Hom	-6928
▁Ash	-6929
▁Henry	-6930
▁capture	-6931
▁Judge	-6932
▁tall	-6933
▁complicated	-6934
ifications	-6935
▁Zeal	-6936
chain	-6937
▁Data	-6938
adelphia	-6939
▁Iowa	-6940
▁FC	-6941
▁organized	-6942
oil	-6943
▁satell	-6944
▁Wisconsin	-6945
ker	-6946
bal	-6947
▁Kent	-6948
sell	-6949
▁successfully	-6950
▁habit	-6951
▁plastic	-6952
▁audio	-6953
On	-6954
idency	-6955
▁aimed	-6956
imp	-6957
▁assistance	-6958
ima	-6959
▁pilot	-6960
▁sympt	-6961
▁Hard	-6962
▁conscious	-6963
▁automatically	-6964
iana	-6965
▁anticip	-6966
actions	-6967
mont	-6968
gorith	-6969
there	-6970
elect	-6971
▁scenes	-6972
An	-6973
▁root	-6974
▁installed	-6975
uan	-6976
▁operate	-6977
▁degrees	-6978
▁teaching	-6979
▁Mid	-6980
▁techniques	-6981
▁nut	-6982
itals	-6983
▁therap	-6984
▁titles	-6985
▁Does	-6986
▁magic	-6987
▁Series	-6988
▁attended	-6989
hent	-6990
▁Alab	-6991
sm	-6992
▁Development	-6993
▁Nob	-6994
aron	-6995
▁Det	-6996
▁permanent	-6997
▁Snow	-6998
ba	-6999
%.	-7000
▁Jac	-7001
▁Moh	-7002
▁Eastern	-7003
▁extrem	-7004
▁iron	-7005
▁pin	-7006
itar	-7007
▁lawyers	-7008
▁solve	-7009
rete	-7010
▁monit	-7011
▁engaged	-7012
▁marked	-7013
▁academic	-7014
▁fake	-7015
▁Kurd	-7016
▁downtown	-7017
▁rating	-7018
▁Coast	-7019
▁SP	-7020
▁CH	-7021
▁Northern	-7022
star	-7023
▁Report	-7024
▁cup	-7025
▁western	-7026
▁phr	-7027
▁pace	-7028
▁taught	-7029
rific	-7030
▁taste	-7031
▁valuable	-7032
▁Hor	-7033
▁inspir	-7034
▁vulnerable	-7035
▁Fred	-7036
▁surgery	-7037
▁Through	-7038
▁warming	-7039
▁OK	-7040
▁regardless	-7041
era	-7042
▁accomp	-7043
▁depending	-7044
▁championship	-7045
ez	-7046
▁recording	-7047
inder	-7048
▁extract	-7049
▁advis	-7050
▁survive	-7051
▁blocks	-7052
▁tracks	-7053
▁comic	-7054
▁Viet	-7055
▁worker	-7056
▁overse	-7057
▁passes	-7058
ibilities	-7059
aed	-7060
▁ru	-7061
▁cable	-7062
▁ok	-7063
▁index	-7064
▁Oak	-7065
rating	-7066
▁collected	-7067
▁Using	-7068
▁defence	-7069
▁Greek	-7070
▁enable	-7071
▁bom	-7072
▁equivalent	-7073
▁prominent	-7074
▁apolog	-7075
▁Manchester	-7076
▁Philadelphia	-7077
▁’	-7078
▁uncertain	-7079
uine	-7080
▁Without	-7081
fr	-7082
▁enjoyed	-7083
▁dict	-7084
▁Video	-7085
▁phones	-7086
▁hidden	-7087
▁reputation	-7088
etary	-7089
▁troub	-7090
▁disaster	-7091
▁crypt	-7092
▁negotiations	-7093
▁Rand	-7094
▁Avenue	-7095
month	-7096
▁visited	-7097
▁privile	-7098
▁afraid	-7099
▁generated	-7100
▁Kir	-7101
▁pounds	-7102
cus	-7103
▁Policy	-7104
▁racial	-7105
▁duty	-7106
▁elite	-7107
▁busy	-7108
lan	-7109
LC	-7110
▁personnel	-7111
▁browser	-7112
athy	-7113
▁unusual	-7114
quarters	-7115
aturally	-7116
▁mainly	-7117
▁exposure	-7118
▁Fund	-7119
ye	-7120
▁AS	-7121
Donald	-7122
▁bes	-7123
▁describes	-7124
▁intense	-7125
▁thin	-7126
▁spr	-7127
mod	-7128
▁gall	-7129
▁principles	-7130
CE	-7131
▁Professor	-7132
▁portion	-7133
▁List	-7134
▁elev	-7135
▁sufficient	-7136
▁compete	-7137
▁emerged	-7138
▁Mayor	-7139
▁Zealand	-7140
▁discipl	-7141
▁brut	-7142
▁taxp	-7143
ashes	-7144
▁Alabama	-7145
▁ESP	-7146
rypt	-7147
▁grant	-7148
▁entit	-7149
▁funny	-7150
▁extension	-7151
At	-7152
▁Bry	-7153
▁Music	-7154
Photo	-7155
▁resulted	-7156
▁everywhere	-7157
▁adopted	-7158
▁Harry	-7159
▁possession	-7160
prise	-7161
mann	-7162
▁fought	-7163
gun	-7164
HS	-7165
▁tur	-7166
▁sanctions	-7167
▁Hit	-7168
▁Navy	-7169
▁Use	-7170
▁firms	-7171
▁patterns	-7172
scape	-7173
▁Sometimes	-7174
▁hadn	-7175
▁shortly	-7176
▁blind	-7177
▁explicit	-7178
▁cameras	-7179
fall	-7180
▁Reuters	-7181
▁Build	-7182
▁contracts	-7183
▁engineering	-7184
▁processes	-7185
▁finance	-7186
▁Royal	-7187
MP	-7188
Un	-7189
antic	-7190
▁stations	-7191
’,	-7192
aun	-7193
▁corruption	-7194
▁cited	-7195
cling	-7196
▁propag	-7197
▁Several	-7198
▁sup	-7199
▁recru	-7200
▁advertising	-7201
▁Arm	-7202
▁mail	-7203
icate	-7204
▁Atlanta	-7205
▁expectations	-7206
writ	-7207
front	-7208
ilton	-7209
viously	-7210
▁recip	-7211
da	-7212
▁rarely	-7213
iro	-7214
ules	-7215
▁minority	-7216
▁Amendment	-7217
▁Mir	-7218
▁Point	-7219
▁strict	-7220
▁enorm	-7221
cles	-7222
world	-7223
▁Fair	-7224
▁Premier	-7225
upid	-7226
ria	-7227
▁NC	-7228
▁inev	-7229
herent	-7230
idelines	-7231
▁Education	-7232
▁scenario	-7233
▁thick	-7234
bro	-7235
▁medium	-7236
▁lights	-7237
▁permission	-7238
▁feelings	-7239
▁Scient	-7240
orough	-7241
▁ho	-7242
ifies	-7243
▁sharp	-7244
ikes	-7245
▁Independ	-7246
▁Hay	-7247
▁acceler	-7248
▁Sir	-7249
▁participate	-7250
▁plug	-7251
▁%	-7252
inking	-7253
▁priority	-7254
istent	-7255
▁tag	-7256
htt	-7257
▁visible	-7258
▁bridge	-7259
▁losses	-7260
▁mel	-7261
▁affili	-7262
▁historic	-7263
▁dozens	-7264
▁veget	-7265
▁wing	-7266
▁Pack	-7267
azz	-7268
active	-7269
▁strikes	-7270
▁ven	-7271
▁Given	-7272
▁clubs	-7273
▁Ros	-7274
▁Season	-7275
making	-7276
eland	-7277
▁loud	-7278
rep	-7279
▁creates	-7280
▁tor	-7281
pread	-7282
▁computers	-7283
▁airport	-7284
▁scoring	-7285
▁Pen	-7286
▁episodes	-7287
▁cyber	-7288
▁ju	-7289
▁yield	-7290
▁Nic	-7291
found	-7292
▁Turkish	-7293
▁founded	-7294
▁implementation	-7295
▁stab	-7296
profit	-7297
▁thousand	-7298
olt	-7299
▁manufacturing	-7300
▁behalf	-7301
▁obst	-7302
▁Little	-7303
ogether	-7304
aska	-7305
▁photograph	-7306
▁Radio	-7307
igg	-7308
Oh	-7309
▁basketball	-7310
▁Cre	-7311
▁Gov	-7312
athered	-7313
▁shock	-7314
▁agric	-7315
▁Es	-7316
▁VR	-7317
izon	-7318
▁algorith	-7319
▁counsel	-7320
▁Sat	-7321
▁stun	-7322
▁fee	-7323
▁interface	-7324
▁Stat	-7325
▁stadium	-7326
▁Market	-7327
ounced	-7328
rell	-7329
▁Ext	-7330
▁gained	-7331
▁ridic	-7332
▁Lind	-7333
▁pump	-7334
▁fault	-7335
▁wonderful	-7336
▁Related	-7337
▁genuine	-7338
▁formal	-7339
▁component	-7340
▁Bernie	-7341
▁Rose	-7342
arsh	-7343
osexual	-7344
▁laid	-7345
▁uniform	-7346
▁journalist	-7347
▁toler	-7348
▁McCain	-7349
▁Matthew	-7350
▁Diego	-7351
▁establishment	-7352
▁struggling	-7353
imore	-7354
▁Administration	-7355
orne	-7356
asion	-7357
▁saved	-7358
▁Luc	-7359
xic	-7360
▁drawing	-7361
▁footage	-7362
▁Head	-7363
▁stable	-7364
▁Rus	-7365
▁ABC	-7366
▁SH	-7367
wr	-7368
▁spark	-7369
▁rely	-7370
▁Field	-7371
▁edition	-7372
▁relief	-7373
MS	-7374
rators	-7375
ni	-7376
who	-7377
umer	-7378
rative	-7379
ilipp	-7380
▁Fed	-7381
▁hole	-7382
▁doors	-7383
▁Whether	-7384
etime	-7385
▁cannabis	-7386
olis	-7387
ded	-7388
▁principle	-7389
▁banned	-7390
weet	-7391
mate	-7392
▁borrow	-7393
▁Information	-7394
▁crop	-7395
▁foundation	-7396
tes	-7397
▁producer	-7398
▁Centre	-7399
▁UFC	-7400
▁Ren	-7401
▁backed	-7402
▁Email	-7403
idespread	-7404
core	-7405
▁Kingdom	-7406
▁dinner	-7407
▁Conference	-7408
▁neighb	-7409
▁tackle	-7410
▁Ont	-7411
▁roles	-7412
▁profession	-7413
▁legend	-7414
▁Anthony	-7415
▁hired	-7416
▁wheel	-7417
lete	-7418
▁flaw	-7419
▁indicate	-7420
ogen	-7421
▁withdraw	-7422
▁philosophy	-7423
▁Patrick	-7424
▁Hell	-7425
▁Link	-7426
▁Academy	-7427
▁recognized	-7428
▁headed	-7429
enth	-7430
▁Ly	-7431
▁farmers	-7432
▁containing	-7433
uer	-7434
igen	-7435
▁magn	-7436
▁exception	-7437
▁plate	-7438
▁uncom	-7439
▁entering	-7440
▁Ice	-7441
amber	-7442
▁movements	-7443
aus	-7444
▁Circ	-7445
▁CO	-7446
▁Jay	-7447
oen	-7448
▁nominee	-7449
▁interviews	-7450
▁WH	-7451
she	-7452
bell	-7453
ATE	-7454
▁river	-7455
▁neutral	-7456
▁cha	-7457
▁www	-7458
eman	-7459
cr	-7460
iel	-7461
etts	-7462
oured	-7463
▁Kat	-7464
▁hang	-7465
":	-7466
▁transm	-7467
TH	-7468
▁ships	-7469
▁discrimination	-7470
▁Earlier	-7471
▁gift	-7472
ulating	-7473
▁Kansas	-7474
▁beliefs	-7475
▁walls	-7476
▁deliber	-7477
▁synt	-7478
log	-7479
▁achieved	-7480
▁delivery	-7481
▁bath	-7482
▁reduction	-7483
▁NAT	-7484
▁liked	-7485
abs	-7486
▁Former	-7487
▁Current	-7488
burgh	-7489
▁Tenn	-7490
interest	-7491
▁incent	-7492
▁Conservative	-7493
EA	-7494
▁Community	-7495
▁destruction	-7496
sylv	-7497
▁proven	-7498
▁challenging	-7499
▁languages	-7500
text	-7501
▁arrange	-7502
▁aver	-7503
▁barely	-7504
ked	-7505
▁retired	-7506
ami	-7507
▁Cameron	-7508
▁ren	-7509
▁Battle	-7510
▁finger	-7511
▁Medical	-7512
▁Tri	-7513
▁Christians	-7514
▁ESPN	-7515
riers	-7516
▁hitting	-7517
▁ocean	-7518
▁Mah	-7519
▁Walker	-7520
teen	-7521
▁Pot	-7522
olen	-7523
▁restrictions	-7524
aching	-7525
▁gonna	-7526
rous	-7527
usive	-7528
▁convicted	-7529
▁convin	-7530
Ex	-7531
abinet	-7532
▁Set	-7533
▁UC	-7534
▁unex	-7535
▁technique	-7536
▁forever	-7537
▁SS	-7538
▁upset	-7539
Be	-7540
ystem	-7541
▁Brew	-7542
▁reviews	-7543
▁Having	-7544
yard	-7545
portion	-7546
▁Cook	-7547
▁producing	-7548
away	-7549
uce	-7550
▁structures	-7551
▁Allen	-7552
▁electronic	-7553
▁Pennsylv	-7554
▁rose	-7555
▁ham	-7556
▁Pop	-7557
amsung	-7558
▁suggesting	-7559
▁indicated	-7560
▁smooth	-7561
▁tickets	-7562
▁exclusive	-7563
))	-7564
▁begun	-7565
▁Anton	-7566
▁corporations	-7567
▁processing	-7568
▁Family	-7569
▁Division	-7570
▁asks	-7571
▁illness	-7572
▁Ale	-7573
▁hide	-7574
imm	-7575
▁widespread	-7576
▁Albert	-7577
ologists	-7578
obs	-7579
▁rapidly	-7580
▁util	-7581
▁recognition	-7582
▁contained	-7583
lessly	-7584
▁bra	-7585
▁Cost	-7586
▁websites	-7587
ouver	-7588
▁Person	-7589
▁progressive	-7590
▁notion	-7591
▁campaigns	-7592
ferences	-7593
▁loyal	-7594
▁Ra	-7595
▁grass	-7596
One	-7597
▁Action	-7598
▁settlement	-7599
▁Ap	-7600
ja	-7601
▁CBS	-7602
▁branch	-7603
▁bail	-7604
▁description	-7605
engers	-7606
▁intellectual	-7607
this	-7608
▁Core	-7609
iti	-7610
▁Environment	-7611
▁Beach	-7612
%,	-7613
▁reaching	-7614
▁->	-7615
▁friendly	-7616
▁normally	-7617
▁equally	-7618
▁reducing	-7619
▁perpet	-7620
▁robot	-7621
rik	-7622
▁racist	-7623
BO	-7624
veland	-7625
sa	-7626
▁unclear	-7627
▁Arabia	-7628
ca	-7629
▁collapse	-7630
sels	-7631
▁representative	-7632
achus	-7633
▁flash	-7634
▁Ball	-7635
usted	-7636
ione	-7637
▁NSA	-7638
arrass	-7639
▁initiative	-7640
▁scream	-7641
▁welf	-7642
▁prepare	-7643
▁Pennsylvania	-7644
▁listening	-7645
▁contribute	-7646
▁external	-7647
▁invent	-7648
enny	-7649
▁viewers	-7650
uma	-7651
▁Town	-7652
RS	-7653
▁fiscal	-7654
▁Latin	-7655
iy	-7656
▁deputy	-7657
▁Baltimore	-7658
▁terrorists	-7659
▁Austin	-7660
cription	-7661
▁welfare	-7662
▁mo	-7663
then	-7664
▁hardly	-7665
rolled	-7666
▁exceed	-7667
▁minds	-7668
▁involvement	-7669
▁Later	-7670
igrant	-7671
▁overwhelming	-7672
udes	-7673
▁Xbox	-7674
▁Stone	-7675
▁carefully	-7676
▁Ross	-7677
▁thrown	-7678
ancouver	-7679
▁Spring	-7680
▁unemployment	-7681
▁Sony	-7682
▁Philipp	-7683
Man	-7684
thon	-7685
▁Ministry	-7686
▁Santa	-7687
▁devast	-7688
▁Was	-7689
appy	-7690
▁Anderson	-7691
▁Brother	-7692
rical	-7693
▁sensitive	-7694
▁Update	-7695
▁Dev	-7696
▁tail	-7697
▁practical	-7698
page	-7699
▁MORE	-7700
▁featuring	-7701
▁Liver	-7702
▁hook	-7703
▁respectively	-7704
▁ethnic	-7705
▁milk	-7706
▁invited	-7707
uties	-7708
▁Golden	-7709
▁fantasy	-7710
▁recover	-7711
lad	-7712
▁Square	-7713
▁Samsung	-7714
▁ON	-7715
▁Pent	-7716
▁Roy	-7717
▁frag	-7718
▁WW	-7719
UL	-7720
ho	-7721
▁statistics	-7722
▁constitutional	-7723
owing	-7724
▁Keep	-7725
▁convinced	-7726
▁Museum	-7727
▁smoke	-7728
bec	-7729
▁investigate	-7730
▁touchdown	-7731
▁NOT	-7732
▁lists	-7733
▁Greece	-7734
▁improvements	-7735
Pe	-7736
▁vital	-7737
▁strategic	-7738
allel	-7739
heast	-7740
▁Connect	-7741
▁vary	-7742
▁connections	-7743
▁sugar	-7744
▁elig	-7745
▁screens	-7746
dem	-7747
umes	-7748
▁complaints	-7749
fare	-7750
unior	-7751
EE	-7752
▁association	-7753
▁joining	-7754
▁wars	-7755
▁define	-7756
▁deeper	-7757
________________	-7758
worth	-7759
▁Chair	-7760
achusetts	-7761
▁behaviour	-7762
een	-7763
▁Ho	-7764
▁Six	-7765
▁Plus	-7766
iversary	-7767
PG	-7768
▁anybody	-7769
nedy	-7770
▁jury	-7771
▁Aud	-7772
tering	-7773
▁overt	-7774
▁AND	-7775
▁scores	-7776
bn	-7777
▁framework	-7778
▁menu	-7779
▁controversy	-7780
▁transgender	-7781
▁wages	-7782
pload	-7783
▁scandal	-7784
▁luck	-7785
▁roads	-7786
anna	-7787
▁independence	-7788
▁referring	-7789
▁failing	-7790
▁fiction	-7791
rator	-7792
gener	-7793
▁remem	-7794
▁Gun	-7795
▁Queen	-7796
▁Bad	-7797
▁cos	-7798
ecut	-7799
▁array	-7800
</	-7801
▁lobby	-7802
▁HD	-7803
▁Bon	-7804
▁anger	-7805
senal	-7806
▁captain	-7807
▁serves	-7808
▁wine	-7809
▁Vegas	-7810
▁Tro	-7811
▁noise	-7812
▁Lewis	-7813
▁gathered	-7814
icking	-7815
▁shit	-7816
▁alien	-7817
▁Prov	-7818
▁Harris	-7819
▁Broad	-7820
wo	-7821
▁platforms	-7822
▁prosec	-7823
▁comprehens	-7824
▁ownership	-7825
▁regulation	-7826
inois	-7827
▁trained	-7828
▁implemented	-7829
▁accus	-7830
ifest	-7831
▁fears	-7832
▁€	-7833
Getty	-7834
▁discovery	-7835
osit	-7836
▁rural	-7837
▁testim	-7838
▁tip	-7839
▁democratic	-7840
▁Pass	-7841
▁soph	-7842
▁Vancouver	-7843
▁Sus	-7844
▁citizen	-7845
▁register	-7846
ouch	-7847
▁neighbour	-7848
▁Guardian	-7849
▁handful	-7850
▁III	-7851
▁reven	-7852
isp	-7853
▁Dave	-7854
▁scholars	-7855
▁Freedom	-7856
▁attempting	-7857
▁iP	-7858
▁Lim	-7859
▁Howard	-7860
▁fab	-7861
▁casual	-7862
▁incorpor	-7863
▁Iranian	-7864
icket	-7865
▁disagree	-7866
jo	-7867
▁Massachusetts	-7868
▁licens	-7869
▁ultimate	-7870
▁temporary	-7871
▁Exper	-7872
PM	-7873
▁Main	-7874
▁recommended	-7875
▁remarks	-7876
oding	-7877
▁Pitt	-7878
▁visitors	-7879
▁heading	-7880
▁collective	-7881
▁discussions	-7882
ihad	-7883
▁peak	-7884
▁Columbia	-7885
hour	-7886
▁Cleveland	-7887
▁Ott	-7888
▁Ba	-7889
▁civilians	-7890
▁Copy	-7891
▁ingred	-7892
▁gear	-7893
▁tone	-7894
Every	-7895
▁holiday	-7896
▁raw	-7897
▁awareness	-7898
▁suffer	-7899
from	-7900
mad	-7901
▁extend	-7902
▁Price	-7903
▁Form	-7904
▁Death	-7905
uros	-7906
▁publication	-7907
▁spaces	-7908
▁Engine	-7909
▁inject	-7910
▁reprodu	-7911
▁API	-7912
▁Kennedy	-7913
▁symptoms	-7914
▁versus	-7915
▁stupid	-7916
▁ignore	-7917
PC	-7918
▁dynamic	-7919
aret	-7920
▁subjects	-7921
▁~	-7922
▁theat	-7923
▁activist	-7924
▁tweeted	-7925
▁expanded	-7926
▁attacking	-7927
▁purchased	-7928
▁tasks	-7929
aning	-7930
▁ranked	-7931
phones	-7932
▁Yeah	-7933
▁Below	-7934
▁eastern	-7935
▁actors	-7936
▁entertainment	-7937
▁Gaza	-7938
▁factory	-7939
▁Hop	-7940
▁salary	-7941
▁coaches	-7942
▁Las	-7943
▁admit	-7944
▁sin	-7945
▁Control	-7946
▁logic	-7947
▁iOS	-7948
▁Expl	-7949
arry	-7950
▁grounds	-7951
angel	-7952
▁Ast	-7953
▁stake	-7954
cific	-7955
▁legs	-7956
▁suspected	-7957
▁estimate	-7958
▁Design	-7959
▁seemingly	-7960
itionally	-7961
repre	-7962
▁Revolution	-7963
intendo	-7964
▁attached	-7965
▁investigating	-7966
yer	-7967
With	-7968
▁layer	-7969
aka	-7970
▁neck	-7971
▁recall	-7972
▁resource	-7973
▁samples	-7974
▁displ	-7975
▁investigators	-7976
▁improvement	-7977
▁?	-7978
▁affairs	-7979
lah	-7980
▁fallen	-7981
▁viewed	-7982
▁humanity	-7983
▁Stadium	-7984
▁Adv	-7985
▁Jam	-7986
▁suspended	-7987
▁liquid	-7988
▁referend	-7989
mary	-7990
▁legitimate	-7991
▁Hospital	-7992
agg	-7993
stract	-7994
▁enormous	-7995
▁brill	-7996
ictions	-7997
▁Bang	-7998
▁poly	-7999
▁settings	-8000
▁cro	-8001
▁genetic	-8002
▁Illinois	-8003
▁brothers	-8004
▁presum	-8005
▁outs	-8006
▁providers	-8007
▁diversity	-8008
xit	-8009
▁Getty	-8010
reprene	-8011
▁Lyn	-8012
▁embarrass	-8013
▁Po	-8014
▁intervention	-8015
ommod	-8016
including	-8017
▁celeb	-8018
▁dramatic	-8019
▁Credit	-8020
▁Low	-8021
▁rook	-8022
▁resign	-8023
▁disrupt	-8024
'.	-8025
oval	-8026
iry	-8027
▁sorry	-8028
▁horse	-8029
▁Sel	-8030
esh	-8031
▁Chel	-8032
arms	-8033
aying	-8034
▁Sure	-8035
▁amid	-8036
▁rational	-8037
▁Budd	-8038
RC	-8039
▁advocates	-8040
▁Justin	-8041
▁fulf	-8042
")	-8043
▁Iraqi	-8044
▁overs	-8045
▁tomorrow	-8046
▁Age	-8047
▁je	-8048
▁hypot	-8049
▁races	-8050
▁Hon	-8051
▁loans	-8052
ultural	-8053
▁Intelligence	-8054
▁noting	-8055
cience	-8056
dri	-8057
▁Tour	-8058
▁foss	-8059
▁offices	-8060
▁Fall	-8061
acon	-8062
▁gam	-8063
otype	-8064
▁Unlike	-8065
pat	-8066
▁medicine	-8067
▁km	-8068
▁transportation	-8069
▁involves	-8070
▁covers	-8071
▁bars	-8072
▁Mill	-8073
▁opinions	-8074
▁absence	-8075
▁conspiracy	-8076
▁”	-8077
▁petition	-8078
▁boat	-8079
▁LA	-8080
▁Marvel	-8081
▁reads	-8082
▁missile	-8083
▁Norm	-8084
▁shr	-8085
▁consistently	-8086
▁porn	-8087
▁Abb	-8088
Script	-8089
▁monitor	-8090
▁forest	-8091
▁jur	-8092
▁bureau	-8093
▁Prop	-8094
▁preced	-8095
▁throwing	-8096
▁mad	-8097
▁substantial	-8098
ammed	-8099
▁papers	-8100
▁Liverpool	-8101
▁authent	-8102
▁stayed	-8103
▁Buff	-8104
RI	-8105
▁coc	-8106
▁closing	-8107
▁Line	-8108
▁chapter	-8109
▁warrant	-8110
vard	-8111
▁Short	-8112
wered	-8113
ective	-8114
inch	-8115
▁careful	-8116
".[	-8117
maker	-8118
▁addressed	-8119
▁profits	-8120
▁personality	-8121
▁Patri	-8122
cover	-8123
▁entr	-8124
▁guarantee	-8125
▁colors	-8126
▁NATO	-8127
▁Football	-8128
▁depends	-8129
▁wrest	-8130
▁clothes	-8131
iability	-8132
▁Prince	-8133
▁inflation	-8134
▁handed	-8135
▁conversations	-8136
▁Common	-8137
▁steel	-8138
▁surf	-8139
▁fantastic	-8140
▁virtually	-8141
▁mountain	-8142
▁guest	-8143
▁Ha	-8144
▁appreciate	-8145
rets	-8146
▁Mexican	-8147
case	-8148
amac	-8149
AG	-8150
ivals	-8151
▁gains	-8152
▁horror	-8153
▁attitude	-8154
▁voter	-8155
▁mining	-8156
geon	-8157
▁incidents	-8158
ipal	-8159
▁console	-8160
▁Deb	-8161
▁cogn	-8162
!)	-8163
▁lowest	-8164
iences	-8165
umin	-8166
▁Unt	-8167
▁Indiana	-8168
▁promises	-8169
flix	-8170
▁Marsh	-8171
▁ballot	-8172
▁mos	-8173
▁marks	-8174
▁tries	-8175
claim	-8176
▁protocol	-8177
▁shoulder	-8178
▁Event	-8179
▁speaks	-8180
des	-8181
keep	-8182
▁inner	-8183
▁Five	-8184
▁tea	-8185
▁hint	-8186
▁astron	-8187
▁Creat	-8188
▁reader	-8189
▁accommod	-8190
ref	-8191
▁swing	-8192
▁dance	-8193
▁spoken	-8194
AF	-8195
▁Ur	-8196
++	-8197
ropri	-8198
hot	-8199
▁fruit	-8200
ordon	-8201
▁conce	-8202
▁Denver	-8203
▁handling	-8204
▁contributions	-8205
unicip	-8206
dy	-8207
▁mic	-8208
▁lucky	-8209
▁covering	-8210
▁photograp	-8211
raph	-8212
▁Nintendo	-8213
EST	-8214
▁threw	-8215
uits	-8216
unes	-8217
plate	-8218
▁innovation	-8219
eding	-8220
▁ranks	-8221
▁drew	-8222
▁spokesperson	-8223
▁Mrs	-8224
plete	-8225
▁Alexander	-8226
▁Tes	-8227
▁Ten	-8228
▁rhet	-8229
▁bacter	-8230
EG	-8231
▁insist	-8232
▁depression	-8233
▁Front	-8234
▁Sarah	-8235
▁encouraged	-8236
aval	-8237
▁judges	-8238
▁Associated	-8239
▁shout	-8240
CS	-8241
▁improving	-8242
▁stone	-8243
▁brown	-8244
scale	-8245
zed	-8246
▁Portland	-8247
itage	-8248
▁Code	-8249
▁trem	-8250
▁Final	-8251
▁divided	-8252
▁subsequent	-8253
▁revel	-8254
▁musical	-8255
▁Master	-8256
▁Moon	-8257
▁Hind	-8258
▁Ontario	-8259
▁portray	-8260
▁premium	-8261
▁Technology	-8262
▁Ted	-8263
▁drama	-8264
▁lands	-8265
amacare	-8266
▁comedy	-8267
▁efficiency	-8268
▁acknowledged	-8269
ille	-8270
WS	-8271
▁referendum	-8272
▁Eag	-8273
▁maps	-8274
▁homeless	-8275
▁cust	-8276
▁distributed	-8277
uted	-8278
ported	-8279
▁temperatures	-8280
▁silver	-8281
▁Corpor	-8282
▁locked	-8283
▁extraord	-8284
▁ec	-8285
————	-8286
itter	-8287
▁rom	-8288
▁spiritual	-8289
bi	-8290
▁Trib	-8291
▁legacy	-8292
▁Roberts	-8293
▁Utah	-8294
▁mistakes	-8295
▁joke	-8296
▁chat	-8297
▁checks	-8298
▁Kong	-8299
▁protecting	-8300
▁Jonathan	-8301
aping	-8302
mo	-8303
ijing	-8304
▁Bron	-8305
annels	-8306
argo	-8307
▁dump	-8308
▁Cooper	-8309
▁nomination	-8310
▁replacement	-8311
▁Equ	-8312
▁Rather	-8313
Im	-8314
Not	-8315
▁breaks	-8316
▁Liberal	-8317
▁barrel	-8318
rient	-8319
uction	-8320
▁abandoned	-8321
abeth	-8322
▁lets	-8323
▁festival	-8324
▁lying	-8325
▁Sweden	-8326
▁grav	-8327
▁Non	-8328
These	-8329
ington	-8330
▁Left	-8331
▁scan	-8332
▁Speaking	-8333
▁yellow	-8334
▁moon	-8335
▁soil	-8336
▁midfield	-8337
▁stolen	-8338
▁blast	-8339
▁(“	-8340
::	-8341
inf	-8342
▁Bra	-8343
▁gal	-8344
▁grid	-8345
▁Lear	-8346
pled	-8347
▁instrument	-8348
▁Girl	-8349
ounce	-8350
heim	-8351
▁commonly	-8352
▁passengers	-8353
▁funded	-8354
▁Cro	-8355
ogs	-8356
▁sty	-8357
backs	-8358
▁Ruby	-8359
▁partnership	-8360
assador	-8361
▁literature	-8362
▁Ak	-8363
▁Graham	-8364
yo	-8365
lahoma	-8366
▁responses	-8367
▁AI	-8368
PP	-8369
▁receiver	-8370
▁skept	-8371
▁copies	-8372
pie	-8373
inction	-8374
▁rif	-8375
fund	-8376
ieties	-8377
▁Base	-8378
▁tape	-8379
▁Dream	-8380
▁upgrade	-8381
▁dad	-8382
erted	-8383
▁ignored	-8384
▁acquired	-8385
▁demonstrated	-8386
▁deficit	-8387
▁joy	-8388
▁Pict	-8389
▁insisted	-8390
▁headquarters	-8391
▁buff	-8392
.-	-8393
▁transactions	-8394
▁les	-8395
▁Warren	-8396
▁virus	-8397
oded	-8398
▁None	-8399
esty	-8400
▁equality	-8401
▁Ever	-8402
▁Article	-8403
ctic	-8404
▁compe	-8405
▁naturally	-8406
▁counts	-8407
▁Galaxy	-8408
▁diverse	-8409
▁ordinary	-8410
iley	-8411
iate	-8412
itary	-8413
▁scope	-8414
▁falls	-8415
aware	-8416
▁rear	-8417
▁symp	-8418
▁universities	-8419
▁conservatives	-8420
▁unions	-8421
▁tracking	-8422
▁Atlantic	-8423
▁Empire	-8424
pa	-8425
▁Ali	-8426
▁criticized	-8427
▁representing	-8428
▁racism	-8429
▁helpful	-8430
▁assert	-8431
UN	-8432
▁arrive	-8433
▁Edward	-8434
▁hoped	-8435
▁exit	-8436
▁Mach	-8437
▁appearances	-8438
▁Beck	-8439
▁measured	-8440
▁studied	-8441
▁programme	-8442
▁proposals	-8443
▁Bloom	-8444
▁Bureau	-8445
▁ramp	-8446
rec	-8447
▁distract	-8448
▁monitoring	-8449
▁march	-8450
▁Beijing	-8451
comes	-8452
▁render	-8453
▁replied	-8454
▁Award	-8455
▁Chelsea	-8456
▁guitar	-8457
▁Hold	-8458
▁Kar	-8459
Well	-8460
▁supplies	-8461
▁DO	-8462
▁Bud	-8463
▁bub	-8464
▁Indust	-8465
▁accomplish	-8466
▁warn	-8467
▁performing	-8468
▁Hur	-8469
▁appointed	-8470
iler	-8471
▁twenty	-8472
▁shopping	-8473
▁Olympic	-8474
ira	-8475
▁Vill	-8476
▁clock	-8477
▁capabilities	-8478
▁assessment	-8479
▁stages	-8480
ixed	-8481
▁exch	-8482
▁Tech	-8483
RL	-8484
▁abroad	-8485
▁fro	-8486
▁veterans	-8487
▁letting	-8488
▁Sean	-8489
high	-8490
aeda	-8491
hop	-8492
▁Netflix	-8493
▁tie	-8494
▁ratio	-8495
▁trave	-8496
▁Eliz	-8497
▁dismissed	-8498
▁presidency	-8499
▁auto	-8500
encing	-8501
▁Governor	-8502
▁transit	-8503
▁concrete	-8504
▁waters	-8505
▁plain	-8506
▁cance	-8507
▁usage	-8508
shire	-8509
▁inequ	-8510
▁museum	-8511
▁conventional	-8512
▁Eff	-8513
▁mathem	-8514
▁Silver	-8515
▁urged	-8516
usalem	-8517
▁Oklahoma	-8518
▁landscape	-8519
▁Jere	-8520
▁introduction	-8521
▁Est	-8522
bridge	-8523
▁congressional	-8524
▁hockey	-8525
door	-8526
acket	-8527
▁Early	-8528
har	-8529
▁Cow	-8530
▁Dutch	-8531
pton	-8532
dney	-8533
▁beauty	-8534
▁protein	-8535
▁Maryland	-8536
▁Les	-8537
eries	-8538
▁Som	-8539
hesis	-8540
▁visiting	-8541
irts	-8542
▁ves	-8543
Trump	-8544
▁spokeswoman	-8545
ais	-8546
zing	-8547
▁Everyone	-8548
▁trigger	-8549
▁blocked	-8550
▁ax	-8551
ecutive	-8552
▁reliable	-8553
▁senator	-8554
mony	-8555
mal	-8556
▁bread	-8557
▁dub	-8558
▁Bruce	-8559
▁wider	-8560
fol	-8561
enez	-8562
▁classified	-8563
▁Belg	-8564
▁hyper	-8565
▁politically	-8566
▁artific	-8567
▁Hamilton	-8568
plus	-8569
▁domain	-8570
cut	-8571
crib	-8572
▁representatives	-8573
ught	-8574
▁Wolf	-8575
made	-8576
▁obs	-8577
▁testimony	-8578
omes	-8579
▁targeting	-8580
rooms	-8581
TT	-8582
▁drove	-8583
▁rescue	-8584
▁tips	-8585
type	-8586
sl	-8587
iano	-8588
ji	-8589
▁Harvard	-8590
▁Hu	-8591
▁margin	-8592
▁Children	-8593
▁predicted	-8594
▁Obamacare	-8595
ped	-8596
▁absor	-8597
▁centers	-8598
▁entitled	-8599
App	-8600
▁Uber	-8601
▁hung	-8602
▁documentary	-8603
▁Carter	-8604
▁clar	-8605
▁parallel	-8606
theless	-8607
▁Gary	-8608
FA	-8609
▁dates	-8610
▁pursue	-8611
ultane	-8612
ila	-8613
▁retirement	-8614
▁popularity	-8615
▁dust	-8616
▁requested	-8617
▁Tele	-8618
▁breath	-8619
▁membership	-8620
▁soccer	-8621
▁Figure	-8622
▁Represent	-8623
▁mole	-8624
▁McK	-8625
▁quote	-8626
▁swim	-8627
▁firing	-8628
▁Vice	-8629
▁assign	-8630
▁monthly	-8631
▁violation	-8632
▁salt	-8633
▁rocket	-8634
archy	-8635
conf	-8636
▁populations	-8637
▁Sab	-8638
▁restaurants	-8639
acco	-8640
orous	-8641
▁Jerusalem	-8642
▁designs	-8643
▁Much	-8644
▁approached	-8645
▁Leon	-8646
▁saving	-8647
▁cig	-8648
iamond	-8649
Do	-8650
▁Reddit	-8651
olph	-8652
xx	-8653
aga	-8654
▁tactics	-8655
▁Anna	-8656
▁introduce	-8657
▁Capt	-8658
========	-8659
▁banking	-8660
▁compare	-8661
▁Cra	-8662
▁survival	-8663
▁PD	-8664
▁entreprene	-8665
UST	-8666
▁pig	-8667
▁patch	-8668
▁Priv	-8669
olves	-8670
▁burden	-8671
▁whenever	-8672
▁sequence	-8673
▁Mess	-8674
jud	-8675
▁focusing	-8676
▁fighter	-8677
▁Andre	-8678
▁disorder	-8679
▁prisoners	-8680
▁forecast	-8681
▁Iron	-8682
▁Cho	-8683
▁Bridge	-8684
▁Boe	-8685
ika	-8686
▁CL	-8687
atar	-8688
▁Custom	-8689
▁Bible	-8690
▁producers	-8691
▁brilliant	-8692
▁toxic	-8693
▁pipeline	-8694
through	-8695
▁unexpected	-8696
▁forcing	-8697
▁overseas	-8698
▁hosp	-8699
▁employed	-8700
▁discour	-8701
▁unpre	-8702
▁demanding	-8703
▁weekly	-8704
▁arguing	-8705
▁Eth	-8706
▁scientist	-8707
▁Berlin	-8708
eters	-8709
isons	-8710
▁Tennes	-8711
bow	-8712
▁shadow	-8713
rapped	-8714
▁Scottish	-8715
isk	-8716
▁satellite	-8717
VE	-8718
▁contrad	-8719
▁Quest	-8720
▁neuro	-8721
▁Sound	-8722
▁preparing	-8723
▁weigh	-8724
▁channels	-8725
▁thorough	-8726
▁cul	-8727
▁rush	-8728
▁loose	-8729
▁CS	-8730
▁generations	-8731
▁wedd	-8732
only	-8733
▁healthcare	-8734
▁Batman	-8735
ela	-8736
▁argues	-8737
ested	-8738
▁Capital	-8739
▁phrase	-8740
▁Opp	-8741
▁Wr	-8742
▁investigations	-8743
▁YOU	-8744
▁anxiety	-8745
▁Friend	-8746
emed	-8747
▁bab	-8748
▁servers	-8749
▁Morgan	-8750
▁keys	-8751
▁harassment	-8752
erts	-8753
▁Ark	-8754
▁Lam	-8755
▁Az	-8756
▁Hong	-8757
▁Being	-8758
▁shame	-8759
▁Trade	-8760
ouri	-8761
afe	-8762
▁settled	-8763
orious	-8764
ederation	-8765
▁Leader	-8766
▁innocent	-8767
elson	-8768
▁actively	-8769
▁butt	-8770
▁celebrate	-8771
▁tens	-8772
ompson	-8773
▁savings	-8774
▁prepar	-8775
▁titled	-8776
▁broader	-8777
▁Vietnam	-8778
aver	-8779
minute	-8780
▁Should	-8781
▁rounds	-8782
oenix	-8783
▁Mult	-8784
▁wealthy	-8785
▁questioned	-8786
▁encounter	-8787
▁mortg	-8788
▁stability	-8789
ennis	-8790
break	-8791
▁circle	-8792
▁lunch	-8793
▁outrage	-8794
▁deny	-8795
icism	-8796
▁anniversary	-8797
▁phenomenon	-8798
ahu	-8799
▁Therefore	-8800
duction	-8801
▁Magic	-8802
▁mac	-8803
▁rooms	-8804
opher	-8805
▁Metro	-8806
Why	-8807
▁tonight	-8808
▁Fal	-8809
▁childhood	-8810
▁releases	-8811
▁objective	-8812
▁Lt	-8813
press	-8814
▁maintained	-8815
▁abilities	-8816
▁prosecutors	-8817
▁alarm	-8818
▁affordable	-8819
▁smartphone	-8820
▁persons	-8821
▁legislative	-8822
▁PH	-8823
▁hydro	-8824
▁universal	-8825
▁exha	-8826
▁provision	-8827
▁experiments	-8828
irlf	-8829
▁bonus	-8830
▁tab	-8831
Star	-8832
▁surely	-8833
▁Instagram	-8834
▁mini	-8835
▁smoking	-8836
▁Would	-8837
▁reforms	-8838
▁Sydney	-8839
▁Photos	-8840
▁aer	-8841
mat	-8842
▁Crime	-8843
▁Kick	-8844
don	-8845
▁reveals	-8846
▁spots	-8847
ocolate	-8848
▁Moreover	-8849
▁struggled	-8850
▁Bi	-8851
People	-8852
mind	-8853
irlfriend	-8854
▁graduate	-8855
▁delic	-8856
▁Palestinians	-8857
▁flags	-8858
▁PA	-8859
▁submitted	-8860
▁secondary	-8861
▁differently	-8862
▁awarded	-8863
▁sear	-8864
▁acid	-8865
▁newsletter	-8866
asty	-8867
alia	-8868
▁Yemen	-8869
▁smell	-8870
▁odds	-8871
ocument	-8872
▁deadly	-8873
ounding	-8874
▁Others	-8875
enter	-8876
▁okay	-8877
▁ratings	-8878
berry	-8879
▁Gulf	-8880
▁fool	-8881
▁Support	-8882
▁reverse	-8883
lined	-8884
ses	-8885
tenance	-8886
oret	-8887
▁landing	-8888
uper	-8889
▁Sav	-8890
olds	-8891
▁Tax	-8892
▁relax	-8893
ctr	-8894
▁mit	-8895
▁Roll	-8896
▁fate	-8897
▁civilian	-8898
▁sorts	-8899
▁Could	-8900
▁silence	-8901
▁_	-8902
▁fur	-8903
▁threatening	-8904
▁chest	-8905
▁Michel	-8906
held	-8907
▁roof	-8908
▁pron	-8909
▁quoted	-8910
▁propaganda	-8911
▁comprehensive	-8912
▁windows	-8913
▁Know	-8914
agh	-8915
▁Brexit	-8916
▁fing	-8917
▁striking	-8918
▁Oakland	-8919
▁trillion	-8920
FF	-8921
scribe	-8922
▁borders	-8923
▁Official	-8924
▁stored	-8925
▁intim	-8926
trans	-8927
▁ceremony	-8928
▁Tai	-8929
▁Think	-8930
▁consent	-8931
▁importantly	-8932
▁Comey	-8933
onder	-8934
iev	-8935
ois	-8936
▁instructions	-8937
rection	-8938
▁Der	-8939
▁Total	-8940
▁Bal	-8941
▁sevent	-8942
▁streaming	-8943
▁highlights	-8944
▁deserve	-8945
▁adventure	-8946
hatt	-8947
▁rookie	-8948
▁Elizabeth	-8949
walk	-8950
CA	-8951
they	-8952
VD	-8953
▁stepped	-8954
▁birds	-8955
▁gent	-8956
▁hal	-8957
▁Li	-8958
holders	-8959
▁Things	-8960
▁drives	-8961
▁errors	-8962
ethe	-8963
??	-8964
▁calm	-8965
▁Crit	-8966
▁playoffs	-8967
abet	-8968
▁Clark	-8969
▁analyst	-8970
▁promising	-8971
▁Local	-8972
▁Murray	-8973
▁dying	-8974
▁voices	-8975
bered	-8976
▁Jenn	-8977
▁chicken	-8978
▁Tok	-8979
▁Remember	-8980
▁persu	-8981
▁dialogue	-8982
▁Son	-8983
king	-8984
▁GT	-8985
▁kilomet	-8986
isa	-8987
▁Store	-8988
▁pointing	-8989
▁bias	-8990
▁Thompson	-8991
▁burning	-8992
▁cooperation	-8993
acts	-8994
▁Gil	-8995
▁tremend	-8996
▁Staff	-8997
▁staying	-8998
▁Vik	-8999
▁ages	-9000
▁precisely	-9001
▁demonstrate	-9002
atern	-9003
▁Imm	-9004
▁Simon	-9005
▁consideration	-9006
▁puzz	-9007
▁waves	-9008
pha	-9009
▁semi	-9010
▁Assembly	-9011
▁Wel	-9012
izer	-9013
▁Hart	-9014
BM	-9015
▁Sa	-9016
▁picks	-9017
▁Libya	-9018
▁cream	-9019
▁Gordon	-9020
▁execution	-9021
▁procedure	-9022
cedented	-9023
▁executives	-9024
▁hosted	-9025
even	-9026
▁torture	-9027
Pl	-9028
▁Had	-9029
asury	-9030
igious	-9031
▁contacted	-9032
▁drone	-9033
▁physically	-9034
▁architecture	-9035
itol	-9036
▁simultane	-9037
ierce	-9038
apolis	-9039
▁wanting	-9040
orship	-9041
▁possess	-9042
▁stem	-9043
▁Charlie	-9044
▁emerging	-9045
▁difficulty	-9046
portation	-9047
ceptions	-9048
▁repeat	-9049
▁Tennessee	-9050
▁meaningful	-9051
lee	-9052
▁competing	-9053
▁dispute	-9054
aria	-9055
▁autonom	-9056
▁assumed	-9057
ishop	-9058
▁judgment	-9059
▁©	-9060
▁coinc	-9061
▁ministry	-9062
▁Page	-9063
▁Nev	-9064
bits	-9065
▁Management	-9066
▁ans	-9067
party	-9068
▁Jean	-9069
▁greatly	-9070
▁managing	-9071
▁Marx	-9072
iffs	-9073
▁assass	-9074
▁cow	-9075
▁shield	-9076
▁categories	-9077
▁defeated	-9078
▁openly	-9079
▁remarkable	-9080
▁endorse	-9081
▁strategies	-9082
▁Pentagon	-9083
▁accessible	-9084
bury	-9085
▁consensus	-9086
▁donations	-9087
▁inches	-9088
▁smile	-9089
asant	-9090
▁distingu	-9091
▁Festival	-9092
▁investments	-9093
▁ele	-9094
▁opens	-9095
▁wounded	-9096
▁gif	-9097
▁Holl	-9098
ailed	-9099
▁contribution	-9100
gus	-9101
▁Box	-9102
rows	-9103
▁participation	-9104
▁suspects	-9105
▁Sud	-9106
yes	-9107
▁Access	-9108
▁knee	-9109
▁MLS	-9110
etch	-9111
▁ease	-9112
organ	-9113
▁recipe	-9114
▁Bow	-9115
▁athletes	-9116
▁assigned	-9117
▁implications	-9118
igate	-9119
▁dating	-9120
▁Online	-9121
aders	-9122
inator	-9123
▁alter	-9124
after	-9125
omed	-9126
▁Until	-9127
EP	-9128
▁Digital	-9129
▁Hawai	-9130
vertisements	-9131
was	-9132
▁Intel	-9133
akh	-9134
▁Mit	-9135
▁promoting	-9136
▁Assad	-9137
▁charity	-9138
▁Affairs	-9139
sect	-9140
▁blank	-9141
▁indicates	-9142
achel	-9143
▁Dur	-9144
▁gross	-9145
▁nic	-9146
▁riding	-9147
▁grade	-9148
▁revers	-9149
▁GO	-9150
icity	-9151
Hz	-9152
▁centuries	-9153
▁formation	-9154
umble	-9155
aration	-9156
▁Executive	-9157
▁discount	-9158
▁memories	-9159
▁Player	-9160
▁fossil	-9161
▁Hand	-9162
▁guidelines	-9163
▁bowl	-9164
itual	-9165
uten	-9166
▁na	-9167
▁whereas	-9168
▁legally	-9169
▁enthusi	-9170
step	-9171
▁tired	-9172
▁frequency	-9173
▁clothing	-9174
▁damaged	-9175
▁passage	-9176
▁custody	-9177
cest	-9178
▁superior	-9179
rif	-9180
▁Case	-9181
▁arbit	-9182
▁mood	-9183
annon	-9184
omy	-9185
▁memo	-9186
▁lapt	-9187
▁studying	-9188
▁CA	-9189
▁Harper	-9190
▁eligible	-9191
lla	-9192
▁facilit	-9193
race	-9194
rac	-9195
▁presentation	-9196
ds	-9197
▁Download	-9198
▁Editor	-9199
▁Alan	-9200
▁Russell	-9201
▁spectrum	-9202
▁lux	-9203
▁transaction	-9204
▁Captain	-9205
child	-9206
▁fundra	-9207
▁Wales	-9208
▁Additionally	-9209
aved	-9210
▁inspect	-9211
▁hopefully	-9212
▁Andy	-9213
author	-9214
▁tables	-9215
▁battles	-9216
▁clinical	-9217
▁racing	-9218
▁tap	-9219
▁educational	-9220
eria	-9221
▁pharm	-9222
▁backing	-9223
js	-9224
▁Rest	-9225
▁shipping	-9226
▁trials	-9227
ributes	-9228
▁nin	-9229
▁addresses	-9230
▁vig	-9231
▁hip	-9232
ito	-9233
▁divor	-9234
▁stere	-9235
▁bin	-9236
▁Occ	-9237
▁dish	-9238
▁kitchen	-9239
▁enhance	-9240
▁Disc	-9241
▁bot	-9242
▁unfair	-9243
▁manifest	-9244
▁**	-9245
assy	-9246
▁Heart	-9247
igenous	-9248
▁Third	-9249
▁expanding	-9250
Sp	-9251
▁managers	-9252
▁discussing	-9253
▁aged	-9254
agic	-9255
iki	-9256
odox	-9257
▁defending	-9258
bu	-9259
▁Stew	-9260
▁Phill	-9261
▁Station	-9262
▁coaching	-9263
▁Kentucky	-9264
▁theories	-9265
ova	-9266
▁graphics	-9267
▁counterpart	-9268
▁substance	-9269
▁Pitts	-9270
▁therapy	-9271
▁poison	-9272
▁glad	-9273
issue	-9274
▁info	-9275
▁muscle	-9276
▁pocket	-9277
▁perceived	-9278
stal	-9279
▁industries	-9280
vision	-9281
AND	-9282
week	-9283
iture	-9284
▁picking	-9285
▁dominant	-9286
▁memor	-9287
lando	-9288
▁Ze	-9289
ylum	-9290
▁tons	-9291
mers	-9292
▁eager	-9293
gered	-9294
▁Fant	-9295
▁surviv	-9296
▁recruit	-9297
▁seed	-9298
riors	-9299
▁Khan	-9300
▁organic	-9301
gence	-9302
▁Hal	-9303
▁stops	-9304
▁module	-9305
TER	-9306
▁helic	-9307
▁Economic	-9308
▁gathering	-9309
▁institution	-9310
aki	-9311
▁gate	-9312
▁Burn	-9313
▁Cole	-9314
▁Psych	-9315
▁procedures	-9316
▁explaining	-9317
▁tut	-9318
math	-9319
market	-9320
▁capitalism	-9321
▁timing	-9322
▁Bol	-9323
▁spell	-9324
▁nerv	-9325
▁Furthermore	-9326
▁scrut	-9327
▁foods	-9328
▁impression	-9329
oln	-9330
▁beach	-9331
▁hire	-9332
▁underlying	-9333
▁("	-9334
▁hospitals	-9335
▁BM	-9336
▁fled	-9337
▁missions	-9338
▁arrival	-9339
▁sed	-9340
html	-9341
ateral	-9342
▁Delhi	-9343
▁recre	-9344
acher	-9345
▁Dragon	-9346
▁insult	-9347
Os	-9348
itudes	-9349
▁SU	-9350
▁Phoenix	-9351
▁echo	-9352
▁followers	-9353
▁stance	-9354
▁regulatory	-9355
enezuel	-9356
osa	-9357
▁diseases	-9358
▁rebels	-9359
▁Ox	-9360
Go	-9361
▁roy	-9362
player	-9363
▁blockchain	-9364
▁bow	-9365
▁preferred	-9366
▁rhetoric	-9367
▁crus	-9368
▁bottle	-9369
▁permit	-9370
▁Gro	-9371
die	-9372
▁engineers	-9373
▁creatures	-9374
▁signature	-9375
unicipal	-9376
AY	-9377
▁Arsenal	-9378
▁sixth	-9379
arre	-9380
alties	-9381
▁sovere	-9382
kee	-9383
▁genre	-9384
Can	-9385
▁punishment	-9386
▁beating	-9387
▁dies	-9388
▁shell	-9389
ogy	-9390
▁grap	-9391
NS	-9392
▁Montreal	-9393
izza	-9394
▁Yan	-9395
atively	-9396
▁requirement	-9397
▁helicop	-9398
hard	-9399
▁topics	-9400
▁lineup	-9401
▁searching	-9402
roph	-9403
▁answered	-9404
▁billions	-9405
base	-9406
▁outlets	-9407
▁compat	-9408
▁migrants	-9409
▁obsc	-9410
alysis	-9411
▁everyday	-9412
▁Ref	-9413
▁adviser	-9414
▁math	-9415
▁merch	-9416
▁badly	-9417
▁pulling	-9418
▁Ku	-9419
▁Pers	-9420
▁acknowledge	-9421
oz	-9422
▁CON	-9423
▁sentenced	-9424
▁Aaron	-9425
▁pill	-9426
cosystem	-9427
Reuters	-9428
▁Tesla	-9429
▁beings	-9430
▁tweets	-9431
▁setup	-9432
▁arr	-9433
ptions	-9434
▁butter	-9435
▁loves	-9436
▁shoes	-9437
▁Continue	-9438
left	-9439
▁Dick	-9440
▁lad	-9441
watch	-9442
▁unprecedented	-9443
▁commander	-9444
▁pollution	-9445
iac	-9446
arency	-9447
van	-9448
▁signals	-9449
▁convince	-9450
▁Nothing	-9451
▁overcome	-9452
▁Bul	-9453
▁NS	-9454
▁Table	-9455
▁escal	-9456
▁genes	-9457
▁variable	-9458
▁trends	-9459
▁Brooklyn	-9460
▁interaction	-9461
▁principal	-9462
▁periods	-9463
build	-9464
▁IC	-9465
▁requiring	-9466
▁cler	-9467
▁citing	-9468
▁Dod	-9469
▁undert	-9470
▁Jeremy	-9471
▁amendment	-9472
Now	-9473
▁psychological	-9474
▁GDP	-9475
▁export	-9476
▁segment	-9477
▁removal	-9478
▁Venezuel	-9479
brid	-9480
▁economics	-9481
▁bullet	-9482
▁JavaScript	-9483
▁EPA	-9484
▁unve	-9485
agger	-9486
emic	-9487
▁sections	-9488
▁occurs	-9489
▁compensation	-9490
ls	-9491
▁partly	-9492
▁speaker	-9493
▁Barb	-9494
▁carries	-9495
▁Writ	-9496
erg	-9497
▁lect	-9498
▁rend	-9499
▁arts	-9500
▁Trust	-9501
▁attractive	-9502
▁vend	-9503
owski	-9504
▁gig	-9505
▁bold	-9506
▁ridiculous	-9507
▁Find	-9508
oca	-9509
▁eggs	-9510
▁talented	-9511
">	-9512
▁analysts	-9513
▁Ocean	-9514
▁ET	-9515
olving	-9516
▁deadline	-9517
▁rolling	-9518
▁posting	-9519
▁Change	-9520
▁Antonio	-9521
▁publishing	-9522
▁−	-9523
▁engineer	-9524
▁instant	-9525
▁statist	-9526
▁Doctor	-9527
▁eliminate	-9528
▁extraordinary	-9529
necess	-9530
▁loop	-9531
▁Order	-9532
▁collaps	-9533
grade	-9534
▁approaches	-9535
▁upload	-9536
▁Reagan	-9537
▁Everything	-9538
▁sheet	-9539
▁homosexual	-9540
▁elder	-9541
▁frequent	-9542
▁weakness	-9543
▁Future	-9544
▁constitu	-9545
▁encouraging	-9546
▁Argent	-9547
▁maintenance	-9548
▁cock	-9549
▁reserved	-9550
▁Word	-9551
▁Ban	-9552
▁roots	-9553
▁corrupt	-9554
▁aims	-9555
▁dramatically	-9556
▁diplomatic	-9557
▁cheaper	-9558
▁sits	-9559
▁notable	-9560
ele	-9561
▁towns	-9562
cott	-9563
▁Marine	-9564
▁fabric	-9565
▁Han	-9566
quest	-9567
▁CC	-9568
netic	-9569
▁colour	-9570
▁Move	-9571
▁Type	-9572
▁instances	-9573
▁comics	-9574
▁Coal	-9575
alling	-9576
eness	-9577
▁tempor	-9578
ixture	-9579
▁arc	-9580
▁associate	-9581
▁Craig	-9582
▁camps	-9583
▁Channel	-9584
▁collaboration	-9585
▁employers	-9586
check	-9587
▁Publ	-9588
▁Independent	-9589
▁gene	-9590
▁Log	-9591
▁inquiry	-9592
aya	-9593
▁subsc	-9594
rix	-9595
▁invasion	-9596
▁lift	-9597
rowing	-9598
▁anonymous	-9599
screen	-9600
oli	-9601
▁labour	-9602
▁Convention	-9603
▁disappointed	-9604
ighth	-9605
▁utility	-9606
iban	-9607
▁neighbors	-9608
▁TR	-9609
▁coup	-9610
▁landed	-9611
▁concepts	-9612
▁interviewed	-9613
▁manufacturers	-9614
istol	-9615
▁distur	-9616
angle	-9617
▁Orlando	-9618
▁traged	-9619
▁prospects	-9620
▁IM	-9621
▁buck	-9622
isdom	-9623
▁recommendations	-9624
▁prompted	-9625
▁deployed	-9626
oga	-9627
▁mask	-9628
▁Tel	-9629
▁Missouri	-9630
oting	-9631
estyle	-9632
▁mice	-9633
▁designer	-9634
▁mystery	-9635
▁couples	-9636
▁Near	-9637
▁fatal	-9638
▁insight	-9639
▁gest	-9640
▁sessions	-9641
▁demanded	-9642
▁bene	-9643
▁CB	-9644
▁displayed	-9645
▁dreams	-9646
mic	-9647
▁emp	-9648
▁contemporary	-9649
▁communicate	-9650
▁prize	-9651
▁moderate	-9652
eared	-9653
opp	-9654
▁Authority	-9655
▁perception	-9656
▁parad	-9657
▁Adams	-9658
▁lessons	-9659
▁inequality	-9660
▁Bes	-9661
▁Perry	-9662
▁ingredients	-9663
apore	-9664
▁correctly	-9665
▁seized	-9666
VP	-9667
▁pregnant	-9668
▁constitution	-9669
▁Sheriff	-9670
▁birthday	-9671
▁).	-9672
▁span	-9673
hr	-9674
▁accompan	-9675
▁guests	-9676
▁oppose	-9677
▁Raj	-9678
▁punch	-9679
▁owns	-9680
▁logo	-9681
▁violations	-9682
▁Kl	-9683
▁recon	-9684
▁occasionally	-9685
▁Film	-9686
▁resolve	-9687
▁fights	-9688
▁functional	-9689
▁Officer	-9690
▁Pittsburgh	-9691
▁Mail	-9692
▁cens	-9693
▁representation	-9694
section	-9695
instein	-9696
▁Pope	-9697
▁ecosystem	-9698
Ob	-9699
const	-9700
▁Model	-9701
olar	-9702
▁intr	-9703
▁repair	-9704
arted	-9705
▁Nevada	-9706
▁Reserve	-9707
▁knock	-9708
▁Bor	-9709
▁performances	-9710
▁cheese	-9711
wich	-9712
throp	-9713
▁explosion	-9714
▁Gill	-9715
▁Christopher	-9716
▁Hitler	-9717
cour	-9718
▁Wright	-9719
▁FA	-9720
▁Library	-9721
news	-9722
▁heroes	-9723
▁adopt	-9724
▁pleased	-9725
▁defender	-9726
onz	-9727
incoln	-9728
▁jumped	-9729
▁CR	-9730
▁Ts	-9731
▁Place	-9732
iens	-9733
▁nose	-9734
▁Copyright	-9735
▁Indones	-9736
▁Mun	-9737
acre	-9738
▁SD	-9739
div	-9740
▁militants	-9741
▁Protection	-9742
hattan	-9743
▁artificial	-9744
will	-9745
▁Subscribe	-9746
▁terr	-9747
▁emotions	-9748
▁Interest	-9749
▁Portug	-9750
▁asset	-9751
▁clip	-9752
istant	-9753
starter	-9754
▁imposed	-9755
cor	-9756
▁volunteers	-9757
▁irre	-9758
▁exclud	-9759
▁!	-9760
▁lifetime	-9761
▁Buy	-9762
▁Mountain	-9763
▁lesson	-9764
mir	-9765
▁biological	-9766
▁intellig	-9767
▁shocked	-9768
ikh	-9769
ulty	-9770
▁libr	-9771
▁hanging	-9772
▁Ven	-9773
▁underground	-9774
▁Map	-9775
▁Eve	-9776
▁adequ	-9777
Qu	-9778
election	-9779
▁modified	-9780
▁nurs	-9781
▁Duke	-9782
err	-9783
LY	-9784
pd	-9785
appropri	-9786
▁Area	-9787
▁relation	-9788
umph	-9789
▁Steel	-9790
▁boxes	-9791
▁professionals	-9792
▁maintaining	-9793
leans	-9794
▁swit	-9795
▁Studies	-9796
▁traveling	-9797
▁podcast	-9798
▁drunk	-9799
vi	-9800
▁bands	-9801
▁bell	-9802
Some	-9803
ials	-9804
▁cognitive	-9805
▁vocal	-9806
▁advocate	-9807
awks	-9808
▁Looking	-9809
ixon	-9810
▁Leban	-9811
▁girlfriend	-9812
▁stamp	-9813
▁Rome	-9814
endar	-9815
ibl	-9816
▁wedding	-9817
▁credits	-9818
▁shirt	-9819
▁soldier	-9820
▁om	-9821
▁Capitol	-9822
▁choosing	-9823
▁Robinson	-9824
▁Band	-9825
▁inspiration	-9826
▁Product	-9827
▁Marg	-9828
owned	-9829
rying	-9830
ipedia	-9831
unity	-9832
▁summit	-9833
▁pa	-9834
ricane	-9835
▁=>	-9836
isition	-9837
▁Comb	-9838
▁Cars	-9839
▁subur	-9840
▁recalled	-9841
▁forum	-9842
▁Gh	-9843
▁Eb	-9844
▁existed	-9845
▁brutal	-9846
▁peaceful	-9847
▁Vlad	-9848
▁opposing	-9849
inally	-9850
▁confused	-9851
bourne	-9852
▁abstract	-9853
▁isolated	-9854
▁interior	-9855
▁DE	-9856
▁electoral	-9857
De	-9858
arget	-9859
hist	-9860
▁describing	-9861
agen	-9862
▁minimal	-9863
▁Standard	-9864
▁NO	-9865
▁jihad	-9866
Yes	-9867
▁Stewart	-9868
▁Alliance	-9869
gets	-9870
▁organisation	-9871
▁subscribe	-9872
▁Resp	-9873
▁nod	-9874
▁guid	-9875
▁Climate	-9876
aa	-9877
▁Pant	-9878
▁desktop	-9879
▁inherent	-9880
▁registration	-9881
▁Griff	-9882
▁stack	-9883
▁Rs	-9884
acles	-9885
▁desperate	-9886
▁sne	-9887
▁sustainable	-9888
▁surrounded	-9889
▁struggles	-9890
▁Orleans	-9891
▁mile	-9892
▁vert	-9893
▁Hamp	-9894
hero	-9895
▁teammates	-9896
▁embrace	-9897
▁Singapore	-9898
▁ideology	-9899
▁integration	-9900
▁Warner	-9901
income	-9902
▁Var	-9903
▁stro	-9904
human	-9905
▁pride	-9906
▁holes	-9907
▁consciousness	-9908
▁Hung	-9909
▁Manhattan	-9910
▁Mother	-9911
▁Entertain	-9912
▁configuration	-9913
▁bankrupt	-9914
▁euro	-9915
▁Treasury	-9916
▁Marc	-9917
▁accum	-9918
▁Oil	-9919
books	-9920
▁compr	-9921
▁promotion	-9922
▁refuse	-9923
▁Ukrainian	-9924
▁probe	-9925
▁wondering	-9926
▁creature	-9927
vo	-9928
vernment	-9929
▁annoy	-9930
▁quit	-9931
▁concerning	-9932
▁Gib	-9933
▁Jerry	-9934
▁buried	-9935
▁knife	-9936
▁bird	-9937
▁references	-9938
tra	-9939
▁expense	-9940
********	-9941
▁integrity	-9942
▁expenses	-9943
▁stimul	-9944
▁ED	-9945
▁journalism	-9946
▁thro	-9947
▁Ottawa	-9948
▁Spir	-9949
▁silent	-9950
Ind	-9951
▁meal	-9952
▁yell	-9953
▁Poll	-9954
▁suspic	-9955
▁refers	-9956
▁momentum	-9957
▁refugee	-9958
▁Lincoln	-9959
▁removing	-9960
▁evident	-9961
dam	-9962
wa	-9963
▁kicked	-9964
▁Ent	-9965
▁flour	-9966
▁donors	-9967
▁closest	-9968
▁Chairman	-9969
▁briefly	-9970
▁Edit	-9971
▁Tam	-9972
▁Aren	-9973
▁utter	-9974
▁occasional	-9975
has	-9976
istle	-9977
▁Holy	-9978
▁Kings	-9979
▁dual	-9980
hire	-9981
▁delight	-9982
▁submit	-9983
▁Within	-9984
imize	-9985
father	-9986
▁pm	-9987
▁bombs	-9988
▁fleet	-9989
▁Emer	-9990
orneys	-9991
▁lobb	-9992
▁jer	-9993
▁acceptable	-9994
▁Mario	-9995
aro	-9996
▁districts	-9997
▁ancest	-9998
▁nervous	-9999
▁stating	-10000
▁exclusively	-10001
▁Ni	-10002
▁USB	-10003
▁assembly	-10004
▁compromise	-10005
▁fel	-10006
▁survived	-10007
▁Giants	-10008
▁Kr	-10009
▁guards	-10010
dict	-10011
sub	-10012
▁Univers	-10013
Fi	-10014
orge	-10015
inge	-10016
▁athe	-10017
▁Taliban	-10018
abe	-10019
gate	-10020
▁Dal	-10021
▁justify	-10022
▁executed	-10023
▁ministers	-10024
▁scar	-10025
▁engaging	-10026
elle	-10027
▁disappear	-10028
rock	-10029
▁Nazi	-10030
▁Osc	-10031
bound	-10032
via	-10033
▁profound	-10034
▁Command	-10035
▁Poland	-10036
▁Jane	-10037
Station	-10038
▁electron	-10039
▁teeth	-10040
▁Blood	-10041
chell	-10042
▁tremendous	-10043
ocated	-10044
▁dominated	-10045
▁keyboard	-10046
▁harsh	-10047
▁asylum	-10048
▁gameplay	-10049
▁sophistic	-10050
pres	-10051
some	-10052
▁confusion	-10053
▁Mississ	-10054
▁convert	-10055
▁Niger	-10056
otte	-10057
▁BC	-10058
utter	-10059
▁MPs	-10060
▁brands	-10061
▁Drug	-10062
▁speakers	-10063
▁Ub	-10064
reck	-10065
▁monster	-10066
▁speculation	-10067
bes	-10068
▁endors	-10069
▁cabinet	-10070
▁considerable	-10071
▁chip	-10072
▁engines	-10073
▁loaded	-10074
▁hiring	-10075
▁Soft	-10076
▁sexually	-10077
▁chaos	-10078
▁Cas	-10079
▁cinem	-10080
▁certific	-10081
▁outcomes	-10082
▁Nether	-10083
eling	-10084
▁interpretation	-10085
▁OR	-10086
▁steady	-10087
urrent	-10088
TML	-10089
cal	-10090
▁concert	-10091
▁breast	-10092
stop	-10093
▁criminals	-10094
grad	-10095
▁flee	-10096
▁packages	-10097
▁Dak	-10098
OK	-10099
▁routes	-10100
▁patent	-10101
▁Hans	-10102
▁charging	-10103
▁Sche	-10104
security	-10105
pack	-10106
▁embed	-10107
▁robust	-10108
▁Based	-10109
▁curious	-10110
▁deemed	-10111
▁FR	-10112
▁attending	-10113
▁challenged	-10114
strong	-10115
dr	-10116
▁True	-10117
attered	-10118
immer	-10119
▁passenger	-10120
TON	-10121
ateful	-10122
apper	-10123
▁guaranteed	-10124
▁Entertainment	-10125
▁Grant	-10126
▁repeal	-10127
▁Flash	-10128
oker	-10129
adi	-10130
▁CPU	-10131
ben	-10132
▁Jimmy	-10133
▁contrary	-10134
▁yeah	-10135
▁mirror	-10136
thood	-10137
▁leaked	-10138
▁slot	-10139
▁alert	-10140
▁pir	-10141
ester	-10142
▁SN	-10143
▁Abu	-10144
▁subsequently	-10145
▁packed	-10146
▁evac	-10147
▁void	-10148
▁Nelson	-10149
▁prost	-10150
mble	-10151
Just	-10152
▁Cold	-10153
▁suspension	-10154
▁Canadians	-10155
▁Deep	-10156
▁defended	-10157
lihood	-10158
▁boom	-10159
▁Hug	-10160
▁physics	-10161
ernand	-10162
▁researcher	-10163
▁characteristics	-10164
▁Wi	-10165
▁printed	-10166
▁fails	-10167
▁Gard	-10168
ophob	-10169
JP	-10170
▁tear	-10171
▁Father	-10172
▁Round	-10173
▁hosts	-10174
▁gri	-10175
▁recovered	-10176
▁nowhere	-10177
Cont	-10178
▁blocking	-10179
▁epic	-10180
▁Tower	-10181
▁chronic	-10182
▁dropping	-10183
▁Russians	-10184
▁checking	-10185
omic	-10186
▁strengthen	-10187
▁produces	-10188
▁FOR	-10189
▁ES	-10190
▁juris	-10191
▁Queens	-10192
▁Rubio	-10193
good	-10194
▁Winter	-10195
▁attracted	-10196
card	-10197
▁Name	-10198
elve	-10199
enh	-10200
▁taxpayers	-10201
izarre	-10202
▁Stanford	-10203
▁fert	-10204
▁figured	-10205
▁hunting	-10206
▁households	-10207
▁Abd	-10208
▁witnesses	-10209
oub	-10210
▁Blake	-10211
▁Financial	-10212
graph	-10213
▁bacteria	-10214
anim	-10215
▁Larry	-10216
▁oxy	-10217
▁Level	-10218
▁Rangers	-10219
▁revolutionary	-10220
atus	-10221
ishers	-10222
▁nu	-10223
▁solo	-10224
▁Bir	-10225
▁expects	-10226
▁presents	-10227
amous	-10228
▁EC	-10229
▁Stock	-10230
▁avo	-10231
ATCH	-10232
http	-10233
ping	-10234
▁junior	-10235
▁Overall	-10236
▁Section	-10237
nan	-10238
lynn	-10239
▁Mind	-10240
merce	-10241
thodox	-10242
▁Snowden	-10243
uter	-10244
▁Modi	-10245
▁simultaneously	-10246
adesh	-10247
▁developments	-10248
▁engagement	-10249
▁blamed	-10250
▁SEC	-10251
▁caps	-10252
cop	-10253
mented	-10254
▁patri	-10255
▁Modern	-10256
white	-10257
▁Victoria	-10258
▁cycl	-10259
QL	-10260
▁bombing	-10261
▁Da	-10262
▁lane	-10263
BN	-10264
atics	-10265
▁backs	-10266
tarian	-10267
▁publish	-10268
▁integrated	-10269
▁impacts	-10270
▁Fact	-10271
rics	-10272
▁enact	-10273
▁unnecess	-10274
▁assemb	-10275
▁forgotten	-10276
gged	-10277
NBC	-10278
cap	-10279
▁Nich	-10280
▁Pa	-10281
▁Phys	-10282
▁radiation	-10283
▁intimid	-10284
imir	-10285
vas	-10286
▁Jun	-10287
▁venture	-10288
▁courtesy	-10289
▁Ka	-10290
▁Alaska	-10291
▁wet	-10292
▁editorial	-10293
AB	-10294
▁pleasure	-10295
▁reass	-10296
aste	-10297
▁Egyptian	-10298
▁surprisingly	-10299
▁ranking	-10300
▁ric	-10301
▁flights	-10302
▁consecut	-10303
ón	-10304
gly	-10305
▁expecting	-10306
bian	-10307
terror	-10308
▁Olympics	-10309
.]	-10310
▁Pear	-10311
By	-10312
▁correl	-10313
▁burned	-10314
▁senators	-10315
▁reserv	-10316
▁raises	-10317
leep	-10318
rank	-10319
▁motivated	-10320
▁scared	-10321
▁Sport	-10322
iere	-10323
▁Louisiana	-10324
inst	-10325
▁fingers	-10326
▁Fight	-10327
▁nationwide	-10328
▁killer	-10329
▁examine	-10330
▁releasing	-10331
▁Prom	-10332
reshold	-10333
erent	-10334
ifier	-10335
▁barg	-10336
▁dependent	-10337
▁lin	-10338
▁hub	-10339
▁Fif	-10340
▁Summer	-10341
thur	-10342
▁orient	-10343
▁qualified	-10344
oned	-10345
▁bits	-10346
▁tanks	-10347
▁Wy	-10348
▁agreements	-10349
▁flav	-10350
▁inher	-10351
▁explicitly	-10352
▁alliance	-10353
oft	-10354
▁angle	-10355
▁Manning	-10356
▁trailer	-10357
▁productive	-10358
▁Collins	-10359
▁Stanley	-10360
▁earthqu	-10361
▁departure	-10362
▁influenced	-10363
▁animation	-10364
etheless	-10365
▁da	-10366
▁decrease	-10367
▁Edition	-10368
▁HIV	-10369
wind	-10370
ressing	-10371
lu	-10372
▁PlayStation	-10373
▁proportion	-10374
▁Very	-10375
low	-10376
gal	-10377
GE	-10378
▁transferred	-10379
▁Vo	-10380
▁enabled	-10381
▁Citiz	-10382
▁courage	-10383
▁flavor	-10384
UC	-10385
▁headlines	-10386
▁Talk	-10387
▁Medicaid	-10388
▁vent	-10389
▁inbox	-10390
▁restore	-10391
▁vit	-10392
▁continu	-10393
▁Block	-10394
▁shops	-10395
▁inevitable	-10396
▁Tokyo	-10397
▁inaug	-10398
("	-10399
▁occupied	-10400
ahoo	-10401
▁criteria	-10402
▁conflicts	-10403
▁accuracy	-10404
▁Nik	-10405
▁transparency	-10406
▁desp	-10407
ILL	-10408
▁Hamas	-10409
▁organis	-10410
riminal	-10411
▁babies	-10412
▁Cloud	-10413
▁los	-10414
▁Python	-10415
▁rebuild	-10416
iar	-10417
▁checked	-10418
▁theft	-10419
iden	-10420
onduct	-10421
uating	-10422
▁ignor	-10423
looking	-10424
▁politician	-10425
▁promoted	-10426
▁identical	-10427
agine	-10428
breaking	-10429
▁occasion	-10430
▁Toy	-10431
DR	-10432
nie	-10433
▁painting	-10434
▁static	-10435
▁singer	-10436
▁Sin	-10437
ailable	-10438
▁balls	-10439
icked	-10440
▁provider	-10441
ippi	-10442
▁belt	-10443
forward	-10444
▁functionality	-10445
▁dimin	-10446
▁py	-10447
▁uncertainty	-10448
▁investigated	-10449
limited	-10450
▁voc	-10451
▁screw	-10452
▁evolved	-10453
▁volunt	-10454
▁Wiki	-10455
▁Smart	-10456
▁iPad	-10457
▁jet	-10458
▁Steam	-10459
vation	-10460
▁distribut	-10461
▁visits	-10462
▁lifestyle	-10463
▁diver	-10464
▁accepting	-10465
zone	-10466
▁Wayne	-10467
▁Lad	-10468
▁uncomfort	-10469
▁variables	-10470
▁McDonald	-10471
▁ally	-10472
leading	-10473
orate	-10474
▁outf	-10475
offs	-10476
▁Malays	-10477
aco	-10478
ERE	-10479
▁telephone	-10480
▁reluct	-10481
▁Netherlands	-10482
▁FO	-10483
▁stats	-10484
▁modest	-10485
achment	-10486
▁kiss	-10487
▁poet	-10488
▁solely	-10489
rition	-10490
ormal	-10491
▁launching	-10492
▁Trek	-10493
▁bol	-10494
▁Laur	-10495
▁Luke	-10496
▁invested	-10497
olid	-10498
▁gym	-10499
▁colleg	-10500
▁Medicare	-10501
▁algorithm	-10502
erald	-10503
▁accord	-10504
▁Champions	-10505
▁Beh	-10506
▁Ronald	-10507
▁Nature	-10508
large	-10509
▁meters	-10510
▁Progress	-10511
ixel	-10512
?’	-10513
▁bulk	-10514
▁Nash	-10515
▁Singh	-10516
).[	-10517
▁impressed	-10518
wed	-10519
▁privilege	-10520
▁McCon	-10521
▁applies	-10522
keley	-10523
ulse	-10524
▁tent	-10525
uther	-10526
▁Kal	-10527
▁Building	-10528
▁imprison	-10529
▁Environmental	-10530
▁Qual	-10531
vol	-10532
▁influential	-10533
▁mart	-10534
▁Fle	-10535
▁chips	-10536
▁chocolate	-10537
▁Philippines	-10538
▁regarded	-10539
▁handled	-10540
▁entrance	-10541
▁consecutive	-10542
▁>>	-10543
▁wise	-10544
PL	-10545
▁prosecutor	-10546
ardo	-10547
ampa	-10548
▁prosecution	-10549
fish	-10550
▁Small	-10551
dep	-10552
ollar	-10553
▁Yang	-10554
▁advertisement	-10555
▁formula	-10556
▁bases	-10557
citation	-10558
▁similarly	-10559
▁Date	-10560
▁Hampshire	-10561
million	-10562
▁recession	-10563
▁disabled	-10564
▁Chron	-10565
▁Organization	-10566
being	-10567
▁Corp	-10568
▁lens	-10569
▁reck	-10570
ista	-10571
▁infection	-10572
pen	-10573
▁complained	-10574
bitious	-10575
llor	-10576
▁Posted	-10577
▁keen	-10578
▁theater	-10579
imb	-10580
olas	-10581
▁sake	-10582
▁Mand	-10583
▁insur	-10584
Me	-10585
▁destro	-10586
▁detention	-10587
▁provisions	-10588
▁absurd	-10589
rifice	-10590
▁strip	-10591
▁Murphy	-10592
IE	-10593
▁destination	-10594
UM	-10595
uz	-10596
▁garden	-10597
▁</	-10598
▁inex	-10599
▁Forest	-10600
reek	-10601
ilation	-10602
▁orbit	-10603
▁Inn	-10604
▁Kurdish	-10605
▁rolled	-10606
▁Tan	-10607
tery	-10608
idal	-10609
▁tragedy	-10610
oup	-10611
▁filter	-10612
▁ought	-10613
▁overl	-10614
▁tower	-10615
▁operated	-10616
ante	-10617
▁boards	-10618
rah	-10619
▁Corporation	-10620
▁immune	-10621
oning	-10622
Let	-10623
▁polling	-10624
▁Benn	-10625
▁Native	-10626
▁conviction	-10627
▁luxury	-10628
▁preserve	-10629
overs	-10630
▁Pinterest	-10631
▁trains	-10632
▁poster	-10633
▁Less	-10634
▁compelling	-10635
▁Morm	-10636
armed	-10637
▁kidn	-10638
dog	-10639
▁password	-10640
TR	-10641
▁Roger	-10642
”)	-10643
▁neighborhoods	-10644
▁bother	-10645
inite	-10646
▁mandate	-10647
▁SE	-10648
▁Knight	-10649
▁Pod	-10650
olitan	-10651
urches	-10652
town	-10653
Ne	-10654
▁concentration	-10655
itement	-10656
ouses	-10657
▁guidance	-10658
▁Reds	-10659
▁lean	-10660
▁AFP	-10661
ding	-10662
▁Between	-10663
▁Patriots	-10664
▁suck	-10665
▁Ow	-10666
boys	-10667
Se	-10668
▁emphasis	-10669
▁Pir	-10670
izations	-10671
vironments	-10672
▁participating	-10673
iper	-10674
laim	-10675
▁enfor	-10676
▁settle	-10677
ugby	-10678
▁fed	-10679
friendly	-10680
▁innovative	-10681
▁tears	-10682
▁missiles	-10683
▁excuse	-10684
anguage	-10685
▁supposedly	-10686
▁adap	-10687
▁gut	-10688
▁Drive	-10689
▁fits	-10690
▁awards	-10691
▁Commons	-10692
▁accusations	-10693
▁leak	-10694
▁sustained	-10695
▁renewable	-10696
▁Jen	-10697
▁Comput	-10698
▁occasions	-10699
▁Against	-10700
▁bone	-10701
▁Dean	-10702
▁antib	-10703
▁accompanied	-10704
▁shelter	-10705
▁beneath	-10706
▁intrig	-10707
▁backup	-10708
▁cooking	-10709
?)	-10710
▁Jess	-10711
▁Asked	-10712
▁bags	-10713
▁Peace	-10714
▁consists	-10715
▁preventing	-10716
▁Imp	-10717
▁Whit	-10718
▁speeds	-10719
▁Rh	-10720
▁analys	-10721
user	-10722
assion	-10723
▁Na	-10724
▁projected	-10725
▁elabor	-10726
▁males	-10727
▁synd	-10728
▁stopping	-10729
track	-10730
▁Along	-10731
▁eru	-10732
▁possibilities	-10733
▁advent	-10734
such	-10735
▁Taiwan	-10736
usting	-10737
▁photographs	-10738
▁Ay	-10739
▁Ian	-10740
▁DVD	-10741
▁Hann	-10742
▁beta	-10743
▁operator	-10744
▁neur	-10745
isms	-10746
▁Fun	-10747
▁assists	-10748
▁surge	-10749
▁panels	-10750
▁pose	-10751
▁bump	-10752
▁realistic	-10753
▁reflects	-10754
▁circuit	-10755
▁cops	-10756
▁Heat	-10757
▁seeks	-10758
▁residential	-10759
▁Beyond	-10760
▁golf	-10761
▁Pel	-10762
▁subtle	-10763
una	-10764
non	-10765
century	-10766
▁Sac	-10767
▁occupation	-10768
▁oldest	-10769
▁resemb	-10770
▁tension	-10771
TE	-10772
about	-10773
▁Sessions	-10774
▁drum	-10775
▁Row	-10776
▁SM	-10777
▁Mas	-10778
guson	-10779
▁layers	-10780
leted	-10781
▁longtime	-10782
untu	-10783
▁Anti	-10784
▁experimental	-10785
incial	-10786
bery	-10787
▁iconic	-10788
▁examined	-10789
▁Vin	-10790
▁cleared	-10791
ilst	-10792
▁dressed	-10793
▁mouse	-10794
▁favourite	-10795
▁traded	-10796
wall	-10797
}}	-10798
▁Motor	-10799
▁Nap	-10800
▁trips	-10801
▁Side	-10802
ucker	-10803
▁hosting	-10804
▁graphic	-10805
▁earnings	-10806
anyahu	-10807
▁manual	-10808
▁Gre	-10809
▁Reid	-10810
▁praised	-10811
▁coin	-10812
▁inhab	-10813
▁±	-10814
▁Cuba	-10815
▁globe	-10816
▁controller	-10817
obb	-10818
rons	-10819
ige	-10820
▁Dor	-10821
amine	-10822
▁Tell	-10823
▁reviewed	-10824
▁newsletters	-10825
▁significance	-10826
ui	-10827
▁outstanding	-10828
former	-10829
▁spotted	-10830
▁documented	-10831
▁Swedish	-10832
▁affects	-10833
▁wireless	-10834
▁revenues	-10835
▁rhy	-10836
▁Cry	-10837
▁beaten	-10838
▁HTML	-10839
▁mortgage	-10840
▁hes	-10841
▁entity	-10842
▁wisdom	-10843
▁bizarre	-10844
▁Domin	-10845
▁Chall	-10846
▁fut	-10847
▁Quebec	-10848
▁torn	-10849
block	-10850
▁Players	-10851
iox	-10852
▁painful	-10853
▁container	-10854
▁Gab	-10855
▁Huff	-10856
▁secular	-10857
▁finishing	-10858
▁Chrome	-10859
▁Bab	-10860
▁crossing	-10861
▁automatic	-10862
▁polar	-10863
▁Blu	-10864
iah	-10865
▁surre	-10866
▁Lions	-10867
thal	-10868
▁steal	-10869
rc	-10870
▁theoret	-10871
▁Mississippi	-10872
▁mysterious	-10873
▁crossed	-10874
EMENT	-10875
▁Orange	-10876
▁mm	-10877
uels	-10878
words	-10879
ppers	-10880
▁Jacob	-10881
▁filing	-10882
itty	-10883
▁unfortunately	-10884
▁iter	-10885
▁constructed	-10886
▁Todd	-10887
▁dirty	-10888
▁bip	-10889
▁Bah	-10890
▁attorneys	-10891
▁bicy	-10892
▁documentation	-10893
▁Mitchell	-10894
▁convenient	-10895
▁creator	-10896
▁Airport	-10897
comp	-10898
▁Kas	-10899
▁administrative	-10900
▁liberty	-10901
▁Rap	-10902
▁awful	-10903
▁Storm	-10904
->	-10905
▁dealt	-10906
▁riders	-10907
arts	-10908
▁robots	-10909
▁Flynn	-10910
▁Gene	-10911
Int	-10912
▁predec	-10913
▁fishing	-10914
▁fucking	-10915
stra	-10916
▁productivity	-10917
Ps	-10918
▁devastating	-10919
▁IV	-10920
neg	-10921
▁tale	-10922
▁Congressional	-10923
▁Madrid	-10924
arded	-10925
▁resort	-10926
▁infant	-10927
oop	-10928
▁environments	-10929
May	-10930
▁ambitious	-10931
▁Brandon	-10932
link	-10933
..."	-10934
▁coins	-10935
▁Magazine	-10936
▁Lady	-10937
▁Kickstarter	-10938
▁converted	-10939
▁anch	-10940
▁ranging	-10941
▁earning	-10942
▁Marshall	-10943
fers	-10944
▁Ward	-10945
▁slide	-10946
▁displays	-10947
celona	-10948
▁Posts	-10949
▁Eagles	-10950
▁mothers	-10951
▁interactions	-10952
ART	-10953
beat	-10954
▁Hunter	-10955
▁ther	-10956
shore	-10957
iors	-10958
▁Manager	-10959
named	-10960
aments	-10961
▁Len	-10962
▁arrests	-10963
▁Watson	-10964
▁rewards	-10965
▁hiding	-10966
▁operators	-10967
▁competitors	-10968
▁municipal	-10969
▁Vladimir	-10970
▁addressing	-10971
▁pour	-10972
▁jurisd	-10973
▁libraries	-10974
▁Swit	-10975
▁overnight	-10976
▁Ky	-10977
isive	-10978
▁toss	-10979
▁murdered	-10980
▁rivals	-10981
▁Naz	-10982
▁toug	-10983
▁winners	-10984
uably	-10985
▁Safety	-10986
isting	-10987
▁Speaker	-10988
▁threshold	-10989
▁align	-10990
▁sleeping	-10991
▁exploit	-10992
▁adoption	-10993
▁Melbourne	-10994
▁Beat	-10995
▁appearing	-10996
▁reserve	-10997
▁collecting	-10998
▁regret	-10999
▁Benj	-11000
▁relie	-11001
▁Sad	-11002
seless	-11003
▁spray	-11004
gov	-11005
▁rebel	-11006
uri	-11007
DC	-11008
▁wore	-11009
▁viewing	-11010
uke	-11011
▁Cos	-11012
▁pregnancy	-11013
▁Netanyahu	-11014
▁curve	-11015
▁Dom	-11016
▁lady	-11017
winning	-11018
▁Print	-11019
charg	-11020
▁combine	-11021
▁Lawrence	-11022
▁burst	-11023
arios	-11024
▁Kyle	-11025
▁meets	-11026
HT	-11027
▁commod	-11028
▁uncomfortable	-11029
▁indication	-11030
▁pension	-11031
▁reflected	-11032
▁misc	-11033
▁Bloomberg	-11034
▁cease	-11035
▁Berkeley	-11036
▁employer	-11037
▁seeds	-11038
▁scrutiny	-11039
▁walks	-11040
▁Amb	-11041
▁celebrated	-11042
▁drops	-11043
▁Coalition	-11044
▁safely	-11045
FS	-11046
KE	-11047
▁Baker	-11048
▁McM	-11049
ects	-11050
▁Campbell	-11051
ching	-11052
first	-11053
ques	-11054
▁beef	-11055
owder	-11056
▁publisher	-11057
▁departments	-11058
▁Lie	-11059
▁exploring	-11060
ailing	-11061
kward	-11062
▁Ferguson	-11063
▁restricted	-11064
▁sophisticated	-11065
▁Brand	-11066
▁deserves	-11067
rencies	-11068
▁calculated	-11069
▁peer	-11070
▁tu	-11071
ocur	-11072
▁Parker	-11073
founder	-11074
GA	-11075
▁Ga	-11076
▁anonym	-11077
▁interven	-11078
▁reign	-11079
▁nights	-11080
mart	-11081
▁newspapers	-11082
▁fer	-11083
acies	-11084
encer	-11085
▁courses	-11086
▁themes	-11087
▁availability	-11088
▁Mom	-11089
▁meanwhile	-11090
HA	-11091
▁pledge	-11092
▁Express	-11093
government	-11094
kind	-11095
bin	-11096
otion	-11097
▁whis	-11098
arians	-11099
athon	-11100
▁radar	-11101
▁sons	-11102
▁delegates	-11103
avery	-11104
▁Mobile	-11105
▁horrible	-11106
▁duties	-11107
agu	-11108
ayed	-11109
▁Text	-11110
cular	-11111
▁ensuring	-11112
▁Federation	-11113
▁acted	-11114
accept	-11115
▁Commissioner	-11116
opt	-11117
▁limitations	-11118
▁pricing	-11119
▁pending	-11120
▁ambassador	-11121
profile	-11122
▁Arts	-11123
▁debates	-11124
▁separated	-11125
▁Hend	-11126
▁viable	-11127
ESS	-11128
▁intelligent	-11129
▁amongst	-11130
▁offseason	-11131
▁orange	-11132
▁Laure	-11133
▁Bart	-11134
▁RT	-11135
▁suggestions	-11136
▁catast	-11137
▁Currently	-11138
▁delivering	-11139
oyd	-11140
▁chemicals	-11141
▁Advertisements	-11142
▁delayed	-11143
bet	-11144
irs	-11145
▁corn	-11146
▁fundament	-11147
▁Awards	-11148
▁firearms	-11149
▁oxygen	-11150
▁Barcelona	-11151
▁migration	-11152
▁Legisl	-11153
▁abund	-11154
▁detained	-11155
▁Morris	-11156
▁prayer	-11157
mons	-11158
▁preparation	-11159
function	-11160
arma	-11161
obby	-11162
▁Stein	-11163
▁fires	-11164
▁Corps	-11165
▁quietly	-11166
▁desert	-11167
▁ritual	-11168
▁tissue	-11169
▁gradually	-11170
▁lighting	-11171
▁replacing	-11172
▁complexity	-11173
▁relatives	-11174
ATED	-11175
▁Draft	-11176
▁carrier	-11177
.),	-11178
▁violated	-11179
▁aspir	-11180
▁equipped	-11181
▁Ry	-11182
▁countless	-11183
▁Campaign	-11184
▁verify	-11185
▁preview	-11186
ori	-11187
▁doctr	-11188
▁annually	-11189
▁caution	-11190
▁Sep	-11191
▁DJ	-11192
piece	-11193
PI	-11194
▁commentary	-11195
▁tob	-11196
▁builds	-11197
▁bugs	-11198
▁startup	-11199
▁demo	-11200
██	-11201
▁parks	-11202
▁McConnell	-11203
▁cave	-11204
▁arena	-11205
▁protections	-11206
▁Pur	-11207
natural	-11208
▁Song	-11209
▁venue	-11210
▁WAS	-11211
ocial	-11212
▁discipline	-11213
▁chamber	-11214
▁parameters	-11215
prot	-11216
LS	-11217
▁comed	-11218
▁Doug	-11219
▁supporter	-11220
▁NCAA	-11221
uates	-11222
...”	-11223
▁fet	-11224
▁worlds	-11225
▁Ca	-11226
▁notably	-11227
▁cruel	-11228
▁Regard	-11229
jan	-11230
▁Soon	-11231
▁Senior	-11232
▁installation	-11233
▁Christianity	-11234
▁psychiat	-11235
▁tablet	-11236
bus	-11237
▁alike	-11238
▁actress	-11239
▁impose	-11240
omach	-11241
▁highlighted	-11242
quer	-11243
outing	-11244
▁questioning	-11245
▁bonds	-11246
▁grants	-11247
▁praise	-11248
two	-11249
▁Hawaii	-11250
▁indu	-11251
fi	-11252
▁tempt	-11253
aucus	-11254
udeau	-11255
▁Barry	-11256
bie	-11257
ugs	-11258
▁Karl	-11259
▁Similarly	-11260
▁styles	-11261
▁commands	-11262
▁Mitt	-11263
▁Saint	-11264
▁Hond	-11265
emit	-11266
bably	-11267
▁adj	-11268
▁Arena	-11269
▁remembered	-11270
▁Obviously	-11271
cat	-11272
▁laptop	-11273
▁complain	-11274
arer	-11275
▁unl	-11276
▁Farm	-11277
▁hunt	-11278
▁Kerry	-11279
burn	-11280
▁gentle	-11281
▁mechanisms	-11282
▁tends	-11283
omer	-11284
▁Fro	-11285
▁fascinating	-11286
▁witnessed	-11287
▁prevented	-11288
▁Evans	-11289
▁logical	-11290
▁drinks	-11291
▁stunning	-11292
▁grave	-11293
▁marginal	-11294
shot	-11295
▁frustration	-11296
urities	-11297
▁golden	-11298
▁Rice	-11299
▁Cut	-11300
formance	-11301
lesh	-11302
▁happiness	-11303
▁starter	-11304
▁Election	-11305
▁poorly	-11306
/.	-11307
Or	-11308
ersion	-11309
▁technological	-11310
▁Benjamin	-11311
▁Something	-11312
▁Prior	-11313
▁patrol	-11314
ims	-11315
▁Hus	-11316
▁wound	-11317
▁honestly	-11318
▁Anyone	-11319
▁conced	-11320
▁fo	-11321
▁Terry	-11322
▁UI	-11323
Leaks	-11324
ols	-11325
▁WATCH	-11326
▁partially	-11327
▁Abbott	-11328
ttes	-11329
▁Money	-11330
▁tum	-11331
▁designated	-11332
▁sizes	-11333
▁faculty	-11334
▁Dakota	-11335
arently	-11336
▁Natural	-11337
▁furn	-11338
TIS	-11339
▁suggestion	-11340
▁altogether	-11341
▁planes	-11342
▁appointment	-11343
▁agriculture	-11344
▁Rain	-11345
▁citizenship	-11346
▁climb	-11347
▁demonstration	-11348
▁prosper	-11349
▁enterprise	-11350
UD	-11351
▁endless	-11352
News	-11353
▁Hotel	-11354
▁Roc	-11355
▁incorrect	-11356
▁prol	-11357
alid	-11358
▁Bond	-11359
istance	-11360
▁trucks	-11361
▁Nevertheless	-11362
▁Forces	-11363
▁powered	-11364
▁forb	-11365
▁translation	-11366
▁Blog	-11367
▁Mov	-11368
appropriate	-11369
gments	-11370
▁summary	-11371
▁bathroom	-11372
oples	-11373
rior	-11374
▁FCC	-11375
ected	-11376
▁permitted	-11377
▁Whatever	-11378
ierre	-11379
uh	-11380
orical	-11381
▁cultiv	-11382
▁Almost	-11383
rait	-11384
pg	-11385
▁electrical	-11386
rup	-11387
▁toll	-11388
▁makers	-11389
▁exploration	-11390
▁disappeared	-11391
▁Investig	-11392
▁drones	-11393
▁celebration	-11394
▁Deputy	-11395
▁Caption	-11396
▁advised	-11397
▁Want	-11398
rike	-11399
▁crown	-11400
▁Brus	-11401
▁Kirk	-11402
▁Krist	-11403
▁stressed	-11404
▁Nat	-11405
▁advocacy	-11406
▁seventh	-11407
▁Chance	-11408
▁Around	-11409
Ass	-11410
▁Tea	-11411
pot	-11412
▁Switzer	-11413
▁observations	-11414
▁Records	-11415
▁contents	-11416
▁greet	-11417
▁bubble	-11418
▁Oxford	-11419
▁cous	-11420
▁Tampa	-11421
▁spy	-11422
fs	-11423
▁''	-11424
▁Alberta	-11425
uj	-11426
Of	-11427
▁decor	-11428
▁Emb	-11429
▁Hey	-11430
oda	-11431
▁flew	-11432
▁ethics	-11433
▁lyr	-11434
▁scratch	-11435
▁transmission	-11436
▁directors	-11437
▁tobacco	-11438
▁Need	-11439
▁cats	-11440
▁arguably	-11441
▁Ess	-11442
▁Trudeau	-11443
FO	-11444
▁yard	-11445
▁dil	-11446
orer	-11447
▁Swiss	-11448
▁buyers	-11449
▁Hispan	-11450
▁lineback	-11451
▁weaken	-11452
cre	-11453
▁Political	-11454
commun	-11455
▁damn	-11456
▁BE	-11457
▁Alt	-11458
rot	-11459
isode	-11460
ologically	-11461
▁sacrifice	-11462
open	-11463
▁Dub	-11464
▁drafted	-11465
▁suprem	-11466
▁Kit	-11467
▁Treat	-11468
▁instantly	-11469
▁reactions	-11470
▁EX	-11471
▁historically	-11472
▁hearts	-11473
▁mechanics	-11474
asted	-11475
▁Gray	-11476
▁singing	-11477
ICE	-11478
▁sauce	-11479
▁audiences	-11480
DAY	-11481
▁haz	-11482
▁Eventually	-11483
▁Je	-11484
▁Philip	-11485
▁Christie	-11486
▁Keith	-11487
rin	-11488
▁circles	-11489
ernel	-11490
▁bund	-11491
▁unnecessary	-11492
▁Indians	-11493
▁MA	-11494
▁rice	-11495
ridge	-11496
▁illegally	-11497
anches	-11498
uez	-11499
▁Occup	-11500
▁Dog	-11501
▁confirmation	-11502
▁awkward	-11503
▁Members	-11504
▁fract	-11505
uccess	-11506
atoes	-11507
▁traveled	-11508
▁COM	-11509
pling	-11510
▁essay	-11511
▁Aw	-11512
emin	-11513
▁mandatory	-11514
▁Cohen	-11515
▁Raid	-11516
▁Inside	-11517
▁devoted	-11518
▁capability	-11519
▁metaph	-11520
▁frustrated	-11521
▁Hum	-11522
▁stir	-11523
▁ash	-11524
polit	-11525
▁assumption	-11526
After	-11527
▁shake	-11528
▁focuses	-11529
▁revealing	-11530
atre	-11531
gary	-11532
▁understands	-11533
▁accomplished	-11534
▁Rail	-11535
▁pressing	-11536
aughters	-11537
▁boundaries	-11538
▁breach	-11539
▁motivation	-11540
▁shocking	-11541
▁epid	-11542
▁Military	-11543
▁ghost	-11544
formed	-11545
▁Ger	-11546
▁Fried	-11547
flow	-11548
▁ceiling	-11549
▁shooter	-11550
▁responding	-11551
▁Rio	-11552
TO	-11553
▁painted	-11554
▁counties	-11555
▁LS	-11556
▁supplement	-11557
▁Notes	-11558
▁`	-11559
▁acquisition	-11560
▁longest	-11561
itate	-11562
▁Neither	-11563
▁Wikipedia	-11564
km	-11565
▁penalties	-11566
▁depos	-11567
▁Tun	-11568
▁Beng	-11569
▁operates	-11570
▁Arctic	-11571
oons	-11572
▁expertise	-11573
▁frank	-11574
▁mountains	-11575
uerto	-11576
▁anarch	-11577
▁Buck	-11578
pin	-11579
uming	-11580
▁coordinator	-11581
▁oversight	-11582
▁respective	-11583
▁Try	-11584
version	-11585
map	-11586
handed	-11587
mother	-11588
▁addiction	-11589
▁orientation	-11590
Ad	-11591
count	-11592
▁overd	-11593
▁Neil	-11594
▁quantum	-11595
mare	-11596
▁qualify	-11597
▁Temple	-11598
▁Ta	-11599
▁divide	-11600
oj	-11601
▁lone	-11602
kes	-11603
While	-11604
▁stomach	-11605
▁cam	-11606
▁References	-11607
▁grocer	-11608
▁hacking	-11609
▁safer	-11610
requ	-11611
MAN	-11612
?'	-11613
▁printing	-11614
▁fastest	-11615
▁conclusions	-11616
▁receives	-11617
acular	-11618
▁enjoying	-11619
▁vaccine	-11620
▁Switzerland	-11621
ivan	-11622
▁meth	-11623
▁applying	-11624
▁Chap	-11625
▁computing	-11626
XX	-11627
▁Due	-11628
▁Conservatives	-11629
verning	-11630
rint	-11631
▁experiencing	-11632
half	-11633
▁mild	-11634
▁hostile	-11635
▁BR	-11636
▁Fast	-11637
▁Ped	-11638
▁crops	-11639
ND	-11640
atical	-11641
▁Maine	-11642
▁Lock	-11643
▁Franklin	-11644
▁pedest	-11645
▁Medicine	-11646
▁entities	-11647
▁derived	-11648
▁UPD	-11649
sk	-11650
▁achievement	-11651
▁ineff	-11652
borne	-11653
▁Pok	-11654
▁recept	-11655
oria	-11656
stan	-11657
▁particles	-11658
▁tar	-11659
▁placing	-11660
string	-11661
▁Tyler	-11662
▁feminist	-11663
▁interrupt	-11664
▁vague	-11665
ocus	-11666
liminary	-11667
▁strongest	-11668
vious	-11669
▁Dougl	-11670
zes	-11671
las	-11672
comed	-11673
▁resur	-11674
lli	-11675
minded	-11676
▁Chuck	-11677
▁contributing	-11678
Image	-11679
speed	-11680
▁rotation	-11681
▁bitter	-11682
▁pione	-11683
nor	-11684
ipher	-11685
▁emerge	-11686
▁distinction	-11687
outheast	-11688
▁Works	-11689
hill	-11690
byn	-11691
▁intensity	-11692
abling	-11693
aman	-11694
▁acceptance	-11695
py	-11696
▁WWE	-11697
▁investing	-11698
▁bears	-11699
western	-11700
▁lung	-11701
▁tutorial	-11702
▁initiatives	-11703
▁earl	-11704
mid	-11705
▁);	-11706
▁AB	-11707
▁calendar	-11708
▁Susan	-11709
▁exchanges	-11710
▁Saints	-11711
▁respected	-11712
▁Circuit	-11713
▁conversion	-11714
mun	-11715
▁MD	-11716
▁gaining	-11717
ryption	-11718
▁Yahoo	-11719
matic	-11720
▁animated	-11721
▁contam	-11722
▁nonprofit	-11723
▁Besides	-11724
valid	-11725
▁Scar	-11726
▁tune	-11727
▁lanes	-11728
▁conservation	-11729
initely	-11730
▁scenarios	-11731
connect	-11732
▁manufacturer	-11733
ortunate	-11734
itivity	-11735
▁ugly	-11736
▁insane	-11737
▁greenhouse	-11738
▁monetary	-11739
Res	-11740
▁node	-11741
▁scary	-11742
▁prototype	-11743
▁humanitarian	-11744
▁bio	-11745
utt	-11746
▁sentences	-11747
▁Firef	-11748
▁condemned	-11749
▁till	-11750
▁Fantasy	-11751
▁subsidies	-11752
▁composed	-11753
▁distant	-11754
▁Nav	-11755
▁toile	-11756
▁crowds	-11757
storm	-11758
▁treating	-11759
▁imperial	-11760
▁churches	-11761
Rep	-11762
▁shorter	-11763
▁resigned	-11764
guard	-11765
▁Danny	-11766
▁Number	-11767
▁dign	-11768
otypes	-11769
idth	-11770
▁formally	-11771
▁Lynch	-11772
Russ	-11773
size	-11774
▁composition	-11775
▁filling	-11776
anded	-11777
▁sher	-11778
▁directions	-11779
▁Brady	-11780
ulpt	-11781
▁rifle	-11782
orient	-11783
▁density	-11784
onia	-11785
▁Corn	-11786
▁sword	-11787
▁por	-11788
▁cake	-11789
▁Cand	-11790
▁Oscar	-11791
▁WikiLeaks	-11792
▁respondents	-11793
▁controlling	-11794
▁rocks	-11795
▁tunnel	-11796
ults	-11797
▁Rogers	-11798
bles	-11799
▁Liberty	-11800
sur	-11801
▁Puerto	-11802
▁duration	-11803
▁pays	-11804
▁mamm	-11805
▁pink	-11806
▁serial	-11807
▁highway	-11808
▁judicial	-11809
▁Bund	-11810
▁READ	-11811
▁transformation	-11812
~~	-11813
▁Salt	-11814
▁sentiment	-11815
▁rehab	-11816
▁Venezuela	-11817
uy	-11818
▁flexible	-11819
acer	-11820
▁heritage	-11821
▁bones	-11822
▁anticipated	-11823
▁infring	-11824
▁popul	-11825
▁reserves	-11826
iments	-11827
▁desired	-11828
▁peers	-11829
▁volunteer	-11830
▁secured	-11831
▁islands	-11832
▁operational	-11833
boards	-11834
▁priest	-11835
▁Buffalo	-11836
▁Diff	-11837
▁touched	-11838
VERTIS	-11839
chron	-11840
▁panic	-11841
▁Fisher	-11842
▁turb	-11843
idding	-11844
▁Luck	-11845
zb	-11846
IO	-11847
▁designers	-11848
▁participated	-11849
Co	-11850
▁wings	-11851
▁Jets	-11852
▁tel	-11853
▁pressed	-11854
▁cultures	-11855
▁explosive	-11856
specific	-11857
▁Robin	-11858
▁Dri	-11859
▁slavery	-11860
▁attributed	-11861
▁jokes	-11862
▁approve	-11863
econom	-11864
▁token	-11865
▁balanced	-11866
di	-11867
▁dispar	-11868
story	-11869
▁residence	-11870
▁Speed	-11871
▁agricultural	-11872
▁grateful	-11873
icut	-11874
▁Partners	-11875
▁heaven	-11876
umbled	-11877
think	-11878
igers	-11879
▁GPU	-11880
sized	-11881
▁incomp	-11882
▁Friends	-11883
test	-11884
auc	-11885
imens	-11886
▁raid	-11887
▁Fat	-11888
sign	-11889
▁appeals	-11890
▁Morning	-11891
▁naked	-11892
iciary	-11893
▁Ju	-11894
▁Century	-11895
▁completion	-11896
icts	-11897
▁Rodrig	-11898
Col	-11899
▁difficulties	-11900
▁spreading	-11901
▁crude	-11902
Name	-11903
▁clever	-11904
code	-11905
▁cryptocur	-11906
▁flexibility	-11907
hol	-11908
dec	-11909
▁Select	-11910
▁ideological	-11911
▁Contact	-11912
Fig	-11913
file	-11914
▁attendance	-11915
▁excitement	-11916
▁priorities	-11917
▁disclosure	-11918
uto	-11919
▁Imagine	-11920
▁teenager	-11921
atile	-11922
second	-11923
bart	-11924
▁rumors	-11925
▁Bh	-11926
▁^	-11927
▁Columbus	-11928
▁spacecraft	-11929
brew	-11930
▁Raven	-11931
▁affair	-11932
▁ADVERTIS	-11933
▁Consider	-11934
▁consequence	-11935
▁Prin	-11936
▁McL	-11937
▁elderly	-11938
▁Weiss	-11939
▁refusing	-11940
▁null	-11941
▁chap	-11942
▁freely	-11943
▁Solar	-11944
▁exem	-11945
▁Harvey	-11946
▁exped	-11947
▁acquire	-11948
ilateral	-11949
▁announcing	-11950
▁Germ	-11951
gi	-11952
▁mechanical	-11953
′′	-11954
▁viral	-11955
▁legendary	-11956
▁Bou	-11957
▁ears	-11958
▁economies	-11959
▁incons	-11960
▁Stre	-11961
iary	-11962
▁Turner	-11963
▁Reading	-11964
ockets	-11965
▁Ath	-11966
mi	-11967
▁rushed	-11968
leton	-11969
product	-11970
▁buzz	-11971
arettes	-11972
▁worthy	-11973
▁Pence	-11974
▁posed	-11975
▁alternatives	-11976
prising	-11977
▁Oliver	-11978
▁pledged	-11979
▁conj	-11980
▁Arkansas	-11981
▁declare	-11982
▁Maria	-11983
▁fright	-11984
rane	-11985
inging	-11986
dale	-11987
▁zones	-11988
ECT	-11989
incinn	-11990
▁reaches	-11991
▁tensions	-11992
drop	-11993
▁quotes	-11994
▁harmful	-11995
Mus	-11996
▁Holland	-11997
▁instruments	-11998
usters	-11999
▁Cass	-12000
▁Brussels	-12001
▁advantages	-12002
▁equity	-12003
▁declaration	-12004
▁dispos	-12005
▁Norway	-12006
▁hier	-12007
▁lun	-12008
▁Corbyn	-12009
chi	-12010
▁portfol	-12011
▁Warriors	-12012
▁abol	-12013
▁disturbing	-12014
▁Elsa	-12015
▁wrapped	-12016
▁MM	-12017
▁hatred	-12018
▁Lucas	-12019
▁Thunder	-12020
UTERS	-12021
▁welcomed	-12022
▁provincial	-12023
▁Tob	-12024
▁interrog	-12025
▁neglect	-12026
▁Updated	-12027
▁whistle	-12028
▁Merkel	-12029
▁technically	-12030
▁trapped	-12031
▁harvest	-12032
▁MC	-12033
▁Carson	-12034
agraph	-12035
▁Shan	-12036
▁Fel	-12037
▁hopeful	-12038
▁Pred	-12039
▁fest	-12040
▁instinct	-12041
▁Communist	-12042
▁DS	-12043
oard	-12044
odge	-12045
▁triggered	-12046
▁fitness	-12047
▁BL	-12048
charge	-12049
because	-12050
powered	-12051
▁knocked	-12052
▁sends	-12053
crat	-12054
▁Jake	-12055
▁condemn	-12056
▁fluid	-12057
▁fare	-12058
▁satisfied	-12059
▁Jefferson	-12060
▁habits	-12061
incinnati	-12062
▁optimistic	-12063
▁constrain	-12064
▁texts	-12065
data	-12066
▁innings	-12067
▁Charlotte	-12068
▁Dest	-12069
▁stocks	-12070
▁bass	-12071
▁shifted	-12072
▁resolved	-12073
▁Employ	-12074
▁RC	-12075
▁deliberately	-12076
▁floating	-12077
▁headline	-12078
eller	-12079
owell	-12080
▁breakfast	-12081
▁NEW	-12082
▁earliest	-12083
▁Resear	-12084
▁Mission	-12085
oa	-12086
nered	-12087
itably	-12088
▁Rank	-12089
▁mutual	-12090
▁philosoph	-12091
▁Anim	-12092
stock	-12093
▁EV	-12094
▁Living	-12095
▁detected	-12096
▁reply	-12097
urned	-12098
ocate	-12099
▁identifying	-12100
▁IRS	-12101
▁Bears	-12102
azy	-12103
keeper	-12104
ousing	-12105
written	-12106
▁grasp	-12107
▁reminded	-12108
▁brows	-12109
▁grip	-12110
▁editing	-12111
▁colleague	-12112
▁subt	-12113
erer	-12114
supp	-12115
whe	-12116
▁Seven	-12117
ATION	-12118
▁beloved	-12119
▁vegan	-12120
▁imagination	-12121
▁Load	-12122
▁waited	-12123
estone	-12124
orph	-12125
▁garb	-12126
▁Country	-12127
▁probability	-12128
▁Phone	-12129
erving	-12130
▁presumably	-12131
abl	-12132
▁rall	-12133
▁recy	-12134
izard	-12135
▁temporarily	-12136
▁avoided	-12137
beit	-12138
▁assuming	-12139
▁deployment	-12140
▁transparent	-12141
▁steep	-12142
▁Joy	-12143
▁Pap	-12144
▁absent	-12145
▁Crown	-12146
▁Verizon	-12147
aukee	-12148
▁assured	-12149
▁Connecticut	-12150
▁Madison	-12151
▁Past	-12152
▁traditionally	-12153
▁HP	-12154
▁Kam	-12155
▁mixture	-12156
▁conducting	-12157
llers	-12158
▁editors	-12159
▁tendency	-12160
NG	-12161
▁colleges	-12162
▁Meet	-12163
acent	-12164
▁hybrid	-12165
▁interf	-12166
▁grabbed	-12167
▁sparked	-12168
roc	-12169
atin	-12170
▁Garden	-12171
▁throws	-12172
▁excessive	-12173
▁brains	-12174
▁survivors	-12175
▁defenders	-12176
▁tourists	-12177
▁magical	-12178
▁nick	-12179
▁reminder	-12180
▁suitable	-12181
▁JS	-12182
▁hackers	-12183
rust	-12184
▁Must	-12185
lash	-12186
▁compliance	-12187
▁aest	-12188
▁minorities	-12189
▁trusted	-12190
ropolitan	-12191
▁immense	-12192
Sc	-12193
never	-12194
iated	-12195
▁clicking	-12196
▁BY	-12197
▁Guy	-12198
▁AMD	-12199
▁barriers	-12200
▁Princ	-12201
hess	-12202
▁divorce	-12203
▁deciding	-12204
▁Gallery	-12205
▁Ghost	-12206
▁Islands	-12207
▁legislature	-12208
▁frozen	-12209
▁Arthur	-12210
▁Profile	-12211
abetes	-12212
▁Fixed	-12213
▁Memorial	-12214
('	-12215
▁casting	-12216
eu	-12217
▁compos	-12218
▁indicating	-12219
▁pursuit	-12220
▁Altern	-12221
▁humor	-12222
▁Nort	-12223
around	-12224
▁liberals	-12225
▁lifted	-12226
pace	-12227
▁Clar	-12228
▁purchases	-12229
▁immigrant	-12230
CO	-12231
▁Bradley	-12232
▁Fab	-12233
gregation	-12234
▁romantic	-12235
▁preval	-12236
▁Hide	-12237
▁Prize	-12238
▁Nin	-12239
group	-12240
▁Imper	-12241
▁Cincinnati	-12242
▁reson	-12243
▁Ja	-12244
best	-12245
▁wishes	-12246
▁FDA	-12247
▁economists	-12248
▁parliamentary	-12249
▁infected	-12250
▁whites	-12251
▁economist	-12252
▁vel	-12253
gs	-12254
▁Thor	-12255
▁worship	-12256
▁strain	-12257
▁scrap	-12258
unct	-12259
▁damaging	-12260
▁Guide	-12261
▁structural	-12262
somet	-12263
gree	-12264
▁Save	-12265
▁Hunt	-12266
▁buttons	-12267
waukee	-12268
abil	-12269
NT	-12270
▁Stars	-12271
▁socialist	-12272
▁processor	-12273
####	-12274
▁bless	-12275
▁grows	-12276
▁meantime	-12277
▁approaching	-12278
▁Communications	-12279
▁penet	-12280
iva	-12281
ella	-12282
▁squee	-12283
▁admits	-12284
▁ethical	-12285
▁Cher	-12286
▁barrier	-12287
wal	-12288
▁Il	-12289
▁lake	-12290
tics	-12291
▁Vermont	-12292
▁athletic	-12293
▁embedded	-12294
ationally	-12295
▁cartoon	-12296
▁Anne	-12297
▁Books	-12298
▁verdict	-12299
▁auction	-12300
▁exports	-12301
▁CM	-12302
▁URL	-12303
▁trop	-12304
▁undermine	-12305
▁disg	-12306
fold	-12307
▁template	-12308
▁urge	-12309
▁::	-12310
▁batteries	-12311
▁inhib	-12312
En	-12313
ructive	-12314
▁decides	-12315
▁planets	-12316
▁ft	-12317
afi	-12318
▁Mort	-12319
▁wallet	-12320
▁donated	-12321
▁Garc	-12322
ski	-12323
▁empire	-12324
▁exempt	-12325
urred	-12326
▁thereby	-12327
▁Glenn	-12328
▁Hi	-12329
ighed	-12330
▁Bos	-12331
▁recount	-12332
▁Pi	-12333
asting	-12334
▁unfortunate	-12335
IST	-12336
▁fru	-12337
▁lobbying	-12338
▁Room	-12339
▁Studio	-12340
▁champions	-12341
▁identification	-12342
dev	-12343
▁Virt	-12344
▁DNC	-12345
seud	-12346
plex	-12347
otton	-12348
lly	-12349
▁pursuing	-12350
▁societies	-12351
Mar	-12352
sky	-12353
▁WR	-12354
▁Photograph	-12355
▁suppose	-12356
▁passionate	-12357
eor	-12358
orig	-12359
▁flip	-12360
▁Advent	-12361
▁Glass	-12362
▁Coach	-12363
▁attitudes	-12364
▁dose	-12365
OG	-12366
tha	-12367
▁Peters	-12368
lem	-12369
▁DR	-12370
▁sequel	-12371
▁Better	-12372
▁unity	-12373
▁bottles	-12374
zo	-12375
forcement	-12376
▁armor	-12377
▁Cambridge	-12378
▁breakdown	-12379
vals	-12380
▁Serge	-12381
▁ampl	-12382
note	-12383
visor	-12384
▁winds	-12385
▁masc	-12386
▁Rams	-12387
▁ADVERTISEMENT	-12388
▁comply	-12389
fig	-12390
▁purely	-12391
▁vibr	-12392
▁Getting	-12393
▁arriving	-12394
▁Record	-12395
▁Universal	-12396
▁horm	-12397
▁secrets	-12398
▁screening	-12399
▁lib	-12400
izable	-12401
();	-12402
▁tang	-12403
▁draws	-12404
ALL	-12405
▁Celt	-12406
owners	-12407
▁expend	-12408
▁Ebola	-12409
▁financing	-12410
when	-12411
school	-12412
▁Universe	-12413
roller	-12414
▁Veter	-12415
▁Pakistani	-12416
▁permits	-12417
quality	-12418
▁governing	-12419
▁detain	-12420
▁warnings	-12421
▁nons	-12422
▁licensed	-12423
▁unders	-12424
▁regulators	-12425
▁Search	-12426
▁sacrific	-12427
▁tong	-12428
▁REUTERS	-12429
esis	-12430
▁stabil	-12431
▁fraction	-12432
▁comparing	-12433
▁Nobody	-12434
▁laser	-12435
▁Indonesia	-12436
▁retreat	-12437
arenthood	-12438
backed	-12439
rained	-12440
haul	-12441
▁succeeded	-12442
▁×	-12443
▁donation	-12444
▁accountable	-12445
idays	-12446
▁silly	-12447
▁Polish	-12448
▁Rosen	-12449
▁lasted	-12450
len	-12451
▁essence	-12452
▁outer	-12453
▁Muham	-12454
▁retailers	-12455
tail	-12456
olk	-12457
▁Amy	-12458
▁Bash	-12459
ACK	-12460
▁observation	-12461
▁Leaf	-12462
pop	-12463
orses	-12464
▁reun	-12465
enna	-12466
▁Cu	-12467
▁Belgium	-12468
oner	-12469
▁offset	-12470
▁sued	-12471
AV	-12472
▁Ec	-12473
▁destroying	-12474
▁execute	-12475
▁vertical	-12476
▁Gonz	-12477
▁Od	-12478
▁preference	-12479
▁Return	-12480
▁diagnosed	-12481
HING	-12482
▁Hindu	-12483
acceptable	-12484
▁gifts	-12485
actor	-12486
cha	-12487
big	-12488
▁Hub	-12489
▁pizza	-12490
▁aftermath	-12491
▁wondered	-12492
▁fence	-12493
▁failures	-12494
▁millenn	-12495
▁cub	-12496
inates	-12497
▁farms	-12498
▁Douglas	-12499
▁Say	-12500
▁median	-12501
start	-12502
▁dispro	-12503
▁Michelle	-12504
anka	-12505
▁demol	-12506
peror	-12507
▁treaty	-12508
▁reconst	-12509
writer	-12510
▁variation	-12511
▁daughters	-12512
▁Finance	-12513
GM	-12514
itbart	-12515
isers	-12516
▁tenure	-12517
giving	-12518
▁emotion	-12519
▁conclude	-12520
▁advances	-12521
fil	-12522
▁Making	-12523
▁streak	-12524
five	-12525
▁creep	-12526
▁tragic	-12527
▁width	-12528
▁sensor	-12529
▁Theatre	-12530
▁cheer	-12531
▁smugg	-12532
utical	-12533
▁Chapter	-12534
▁contacts	-12535
▁beers	-12536
Pal	-12537
▁QB	-12538
▁Joh	-12539
▁feeding	-12540
media	-12541
▁helicopter	-12542
urse	-12543
▁dece	-12544
▁Islamist	-12545
▁Johnny	-12546
▁lacking	-12547
▁awa	-12548
▁Title	-12549
▁generous	-12550
▁honey	-12551
▁counting	-12552
▁Poké	-12553
▁urging	-12554
▁Zh	-12555
eded	-12556
▁Studios	-12557
▁Spirit	-12558
▁founding	-12559
▁feared	-12560
master	-12561
rien	-12562
▁zomb	-12563
shirt	-12564
▁Too	-12565
advant	-12566
▁Colomb	-12567
dig	-12568
▁insect	-12569
▁indict	-12570
▁Collect	-12571
▁“[	-12572
▁taxpayer	-12573
▁decreased	-12574
▁rib	-12575
▁Years	-12576
▁metab	-12577
▁trash	-12578
▁fierce	-12579
▁slave	-12580
▁routinely	-12581
▁unh	-12582
▁cluster	-12583
▁dys	-12584
▁aired	-12585
▁acres	-12586
▁careers	-12587
▁commissioner	-12588
arents	-12589
irable	-12590
▁treatments	-12591
▁firef	-12592
ussion	-12593
▁font	-12594
▁capitalist	-12595
▁intentions	-12596
▁compound	-12597
▁villages	-12598
▁BJP	-12599
▁hill	-12600
▁Ubuntu	-12601
▁recruiting	-12602
▁Alf	-12603
▁Working	-12604
▁Half	-12605
▁sooner	-12606
▁Cowboys	-12607
▁Till	-12608
▁collapsed	-12609
▁Mormon	-12610
▁organisations	-12611
▁retrie	-12612
▁compiled	-12613
▁masses	-12614
▁suspicion	-12615
▁()	-12616
▁Students	-12617
▁aging	-12618
▁Milwaukee	-12619
▁isolation	-12620
Ty	-12621
és	-12622
▁doubled	-12623
▁UPDATE	-12624
▁encount	-12625
▁·	-12626
▁Argentina	-12627
▁beneficial	-12628
tech	-12629
▁separation	-12630
▁Jennifer	-12631
▁cleaning	-12632
▁suspicious	-12633
▁interference	-12634
▁nan	-12635
▁TD	-12636
▁creators	-12637
▁leverage	-12638
▁eleph	-12639
▁Isa	-12640
oni	-12641
▁Devil	-12642
▁encountered	-12643
▁Pick	-12644
▁Member	-12645
▁Gay	-12646
▁corresponding	-12647
▁Bernard	-12648
angelical	-12649
▁disorders	-12650
▁SW	-12651
▁workplace	-12652
▁considers	-12653
▁pleaded	-12654
path	-12655
▁monop	-12656
points	-12657
▁boyfriend	-12658
▁Budget	-12659
▁females	-12660
oler	-12661
................	-12662
▁transformed	-12663
▁invite	-12664
▁Marco	-12665
▁slower	-12666
▁lau	-12667
▁outright	-12668
▁Lebanon	-12669
rape	-12670
value	-12671
▁pilots	-12672
▁inclusion	-12673
▁trafficking	-12674
▁lyrics	-12675
▁credibility	-12676
iph	-12677
▁novels	-12678
▁mock	-12679
heric	-12680
▁enhanced	-12681
▁shifts	-12682
▁glob	-12683
ector	-12684
▁denial	-12685
ollah	-12686
▁ultra	-12687
▁edited	-12688
▁Bros	-12689
▁unveiled	-12690
▁riot	-12691
▁Nixon	-12692
▁Shadow	-12693
▁continuous	-12694
▁Kle	-12695
▁boring	-12696
ordable	-12697
▁eliminated	-12698
▁Sciences	-12699
▁wrestling	-12700
▁touchdowns	-12701
gian	-12702
▁gamers	-12703
▁labels	-12704
arest	-12705
▁Hills	-12706
▁Relations	-12707
▁Inv	-12708
cribed	-12709
▁Mason	-12710
▁warfare	-12711
▁PL	-12712
▁agrees	-12713
▁DM	-12714
▁genet	-12715
▁breathing	-12716
▁Walter	-12717
claimed	-12718
▁celebrity	-12719
▁evaluate	-12720
▁teens	-12721
▁Tory	-12722
umm	-12723
▁institutional	-12724
▁believing	-12725
normal	-12726
store	-12727
▁Hope	-12728
▁Lane	-12729
▁Lisa	-12730
▁traits	-12731
▁partial	-12732
driven	-12733
From	-12734
▁magnitude	-12735
▁fib	-12736
stage	-12737
hal	-12738
▁Kind	-12739
▁entrepreneurs	-12740
▁Either	-12741
coins	-12742
▁midfielder	-12743
▁organizing	-12744
▁licensing	-12745
▁directory	-12746
▁dumb	-12747
astically	-12748
▁Own	-12749
▁Goldman	-12750
▁observe	-12751
▁incentives	-12752
ools	-12753
▁Rah	-12754
olo	-12755
▁screaming	-12756
▁justified	-12757
▁Race	-12758
▁lip	-12759
▁statistical	-12760
▁grace	-12761
▁enables	-12762
▁incentive	-12763
▁Woman	-12764
▁educated	-12765
▁terminal	-12766
▁layout	-12767
▁wheels	-12768
▁Rat	-12769
direct	-12770
▁NPR	-12771
▁bust	-12772
▁firmly	-12773
ueller	-12774
▁dirt	-12775
▁sculpt	-12776
▁Travel	-12777
▁civilization	-12778
▁codes	-12779
▁damages	-12780
▁Gates	-12781
aley	-12782
ello	-12783
▁steam	-12784
home	-12785
aceutical	-12786
▁shar	-12787
gt	-12788
▁kingdom	-12789
▁Close	-12790
Hey	-12791
▁visa	-12792
▁unrest	-12793
▁hence	-12794
▁Cond	-12795
▁invented	-12796
▁sponsored	-12797
▁decks	-12798
▁Viol	-12799
▁Merc	-12800
ctive	-12801
mouth	-12802
reach	-12803
aux	-12804
▁rushing	-12805
▁workforce	-12806
▁connecting	-12807
▁cricket	-12808
▁vacation	-12809
▁Method	-12810
▁translated	-12811
▁commented	-12812
illo	-12813
▁finan	-12814
opard	-12815
▁Sor	-12816
▁Self	-12817
▁Buzz	-12818
ublin	-12819
▁comparable	-12820
▁introducing	-12821
▁toy	-12822
▁divers	-12823
pur	-12824
▁snaps	-12825
▁Sox	-12826
▁authorized	-12827
urable	-12828
▁preliminary	-12829
▁appealing	-12830
▁rhyth	-12831
▁gravity	-12832
▁BB	-12833
▁realm	-12834
amps	-12835
▁Carlos	-12836
▁Ric	-12837
▁spawn	-12838
anium	-12839
▁counterparts	-12840
▁cents	-12841
▁Brazilian	-12842
▁dubbed	-12843
▁proceedings	-12844
itative	-12845
▁Reed	-12846
▁branches	-12847
▁Hat	-12848
▁earthquake	-12849
▁Dennis	-12850
▁Broncos	-12851
▁cort	-12852
▁sheer	-12853
▁disappointing	-12854
▁Pere	-12855
adows	-12856
▁crying	-12857
essional	-12858
▁traditions	-12859
▁subscription	-12860
▁Init	-12861
▁cocaine	-12862
▁solidarity	-12863
▁Incre	-12864
▁Software	-12865
▁marine	-12866
▁Bennett	-12867
CD	-12868
▁peoples	-12869
▁Officials	-12870
▁mentally	-12871
▁lengthy	-12872
▁matching	-12873
▁determination	-12874
▁Workers	-12875
▁sectors	-12876
▁amend	-12877
▁twist	-12878
ifting	-12879
▁Seah	-12880
▁unst	-12881
▁Wonder	-12882
▁psychology	-12883
cker	-12884
resa	-12885
▁filming	-12886
▁willingness	-12887
▁Brooks	-12888
▁plaint	-12889
arthy	-12890
▁pupp	-12891
▁exceptions	-12892
▁fict	-12893
▁climbing	-12894
▁albums	-12895
▁jumping	-12896
cend	-12897
▁Hem	-12898
▁wildlife	-12899
source	-12900
▁Spider	-12901
bull	-12902
umbling	-12903
▁instruction	-12904
controlled	-12905
▁smartphones	-12906
▁unch	-12907
▁funeral	-12908
▁arrangement	-12909
▁Ave	-12910
▁shed	-12911
igma	-12912
feld	-12913
plan	-12914
▁anime	-12915
ellar	-12916
cca	-12917
▁iT	-12918
▁shoulders	-12919
SE	-12920
▁compassion	-12921
▁Charg	-12922
▁Highway	-12923
▁thirty	-12924
ugged	-12925
IVE	-12926
▁lawsuits	-12927
▁adequate	-12928
▁Superman	-12929
▁endorsed	-12930
▁avoiding	-12931
▁trace	-12932
▁creativity	-12933
▁Tribune	-12934
ivic	-12935
▁grain	-12936
▁threaten	-12937
▁overlook	-12938
alog	-12939
▁convinc	-12940
aha	-12941
elta	-12942
iots	-12943
▁Jar	-12944
ateur	-12945
▁Researchers	-12946
iking	-12947
▁implementing	-12948
▁establishing	-12949
▁Sent	-12950
engu	-12951
▁Eight	-12952
▁Transportation	-12953
▁specialist	-12954
Any	-12955
▁Representatives	-12956
▁jew	-12957
▁GR	-12958
▁Impro	-12959
▁sweat	-12960
▁regards	-12961
days	-12962
▁investor	-12963
airy	-12964
▁Stop	-12965
lib	-12966
▁negotiate	-12967
▁accounting	-12968
▁Aqu	-12969
▁Ide	-12970
▁escaped	-12971
▁temple	-12972
▁Juan	-12973
▁triple	-12974
▁reflection	-12975
▁sensors	-12976
▁betray	-12977
ppy	-12978
Net	-12979
▁counted	-12980
lude	-12981
iasm	-12982
ocker	-12983
▁accurately	-12984
▁Blues	-12985
▁paths	-12986
je	-12987
▁Gear	-12988
live	-12989
▁tradem	-12990
▁Resources	-12991
▁meals	-12992
▁LED	-12993
▁monsters	-12994
▁renewed	-12995
▁NG	-12996
▁generating	-12997
▁Calgary	-12998
nik	-12999
▁Planned	-13000
▁Brun	-13001
▁MO	-13002
▁corners	-13003
NET	-13004
issa	-13005
may	-13006
▁musicians	-13007
▁Palin	-13008
▁MMA	-13009
▁indigenous	-13010
▁motorcy	-13011
▁shifting	-13012
▁Recently	-13013
raham	-13014
ulum	-13015
▁leagues	-13016
▁brave	-13017
▁severely	-13018
▁fundraising	-13019
▁likelihood	-13020
acious	-13021
▁precious	-13022
▁marry	-13023
▁une	-13024
▁Added	-13025
▁Edwards	-13026
▁problematic	-13027
▁Hockey	-13028
▁prohibited	-13029
▁Shel	-13030
▁PAC	-13031
▁User	-13032
▁worn	-13033
▁folder	-13034
▁Join	-13035
▁Analy	-13036
▁magnetic	-13037
▁Truth	-13038
▁Shar	-13039
▁Armen	-13040
▁Urban	-13041
▁Billy	-13042
▁divid	-13043
aghd	-13044
▁Lost	-13045
outube	-13046
oline	-13047
llo	-13048
▁literary	-13049
▁hypothesis	-13050
▁diox	-13051
▁Server	-13052
▁certificate	-13053
▁bankruptcy	-13054
▁spare	-13055
▁consumed	-13056
▁averaged	-13057
▁timeline	-13058
▁Scientists	-13059
▁Denmark	-13060
ão	-13061
▁Iss	-13062
▁Spencer	-13063
▁resume	-13064
▁shootings	-13065
date	-13066
rose	-13067
▁Exchange	-13068
DB	-13069
▁triumph	-13070
▁Kel	-13071
▁Harrison	-13072
▁interactive	-13073
▁Rou	-13074
▁consultant	-13075
▁inch	-13076
▁wooden	-13077
▁tatt	-13078
▁Qaeda	-13079
ride	-13080
▁NDP	-13081
▁==	-13082
have	-13083
▁underway	-13084
▁»	-13085
lie	-13086
▁Liberals	-13087
▁Comics	-13088
inance	-13089
affe	-13090
▁Koch	-13091
▁sheriff	-13092
▁Wallace	-13093
▁Ald	-13094
▁affecting	-13095
▁Prim	-13096
width	-13097
▁descript	-13098
▁Muhammad	-13099
▁inmates	-13100
table	-13101
▁Nearly	-13102
▁Operation	-13103
▁cod	-13104
ulent	-13105
▁von	-13106
▁Rachel	-13107
itated	-13108
▁purchasing	-13109
▁bite	-13110
etta	-13111
▁wreck	-13112
▁Joined	-13113
▁attacker	-13114
▁cycling	-13115
▁intu	-13116
ooting	-13117
▁assumptions	-13118
▁cra	-13119
▁powder	-13120
▁Gate	-13121
▁accompany	-13122
▁org	-13123
▁File	-13124
▁Git	-13125
ulative	-13126
▁Pas	-13127
▁Iv	-13128
▁Nex	-13129
▁Give	-13130
▁continent	-13131
▁reasoning	-13132
▁slip	-13133
▁Germans	-13134
▁ACL	-13135
▁Cart	-13136
iliation	-13137
▁maker	-13138
asm	-13139
kees	-13140
▁clinic	-13141
▁Double	-13142
▁impress	-13143
erences	-13144
▁VA	-13145
pse	-13146
▁Hud	-13147
▁merc	-13148
cules	-13149
occ	-13150
▁Blair	-13151
▁Electric	-13152
▁Breitbart	-13153
▁recalls	-13154
▁п	-13155
munition	-13156
▁HTT	-13157
isible	-13158
▁admission	-13159
▁fuels	-13160
neath	-13161
▁farming	-13162
▁Palestine	-13163
▁indirect	-13164
auer	-13165
▁sail	-13166
▁supportive	-13167
▁royal	-13168
▁wherever	-13169
▁hij	-13170
Am	-13171
▁apology	-13172
https	-13173
▁aggression	-13174
▁folk	-13175
▁lesser	-13176
▁superhero	-13177
ignt	-13178
east	-13179
▁shaped	-13180
▁Systems	-13181
▁ox	-13182
Book	-13183
ocaly	-13184
▁hed	-13185
zech	-13186
▁Object	-13187
▁statue	-13188
▁forming	-13189
▁pepper	-13190
▁tub	-13191
▁chains	-13192
MB	-13193
▁adaptation	-13194
▁veto	-13195
ocity	-13196
▁vegetables	-13197
▁Terror	-13198
▁Quick	-13199
▁relating	-13200
▁crashed	-13201
iang	-13202
iosity	-13203
ugging	-13204
▁mph	-13205
▁slaves	-13206
health	-13207
ahl	-13208
▁Parenthood	-13209
aws	-13210
▁Homeland	-13211
▁Upon	-13212
▁swimming	-13213
atherine	-13214
eches	-13215
closure	-13216
▁delays	-13217
▁Bulls	-13218
▁leather	-13219
▁Ltd	-13220
▁mounted	-13221
▁Seahawks	-13222
▁teenage	-13223
▁Mack	-13224
Sec	-13225
▁leaf	-13226
▁audit	-13227
▁broadband	-13228
▁Dublin	-13229
▁Silicon	-13230
aku	-13231
▁laughing	-13232
▁photographer	-13233
▁locals	-13234
▁exhaust	-13235
▁Jamie	-13236
▁Assistant	-13237
▁compatible	-13238
orns	-13239
▁Movement	-13240
▁resignation	-13241
▁origins	-13242
▁trauma	-13243
▁costly	-13244
▁Activ	-13245
olphins	-13246
▁__	-13247
wart	-13248
▁Fitz	-13249
▁suits	-13250
selling	-13251
▁Defence	-13252
▁PT	-13253
▁Raiders	-13254
▁Vikings	-13255
▁shore	-13256
▁embassy	-13257
▁Soul	-13258
Te	-13259
▁Introdu	-13260
▁GPS	-13261
levant	-13262
▁inappropriate	-13263
ullivan	-13264
▁publishers	-13265
iop	-13266
▁kills	-13267
▁Gas	-13268
inos	-13269
than	-13270
▁Si	-13271
▁Unit	-13272
addy	-13273
▁transcript	-13274
▁Study	-13275
▁airline	-13276
▁offshore	-13277
▁abused	-13278
ambling	-13279
▁intercept	-13280
people	-13281
▁unfold	-13282
▁lecture	-13283
▁vulnerability	-13284
rer	-13285
oday	-13286
asi	-13287
IDS	-13288
▁garbage	-13289
olan	-13290
OST	-13291
tic	-13292
▁blacks	-13293
▁testified	-13294
esity	-13295
▁Agr	-13296
▁Laura	-13297
▁mobil	-13298
▁Original	-13299
acker	-13300
▁insists	-13301
▁darkness	-13302
▁organize	-13303
enz	-13304
▁specified	-13305
▁Arn	-13306
▁rated	-13307
ailand	-13308
▁predictions	-13309
uced	-13310
▁unanim	-13311
▁swift	-13312
▁leaks	-13313
▁afterwards	-13314
▁archae	-13315
▁independently	-13316
▁sounded	-13317
▁thoroughly	-13318
▁rankings	-13319
▁portfolio	-13320
▁consolid	-13321
▁encryption	-13322
▁Marl	-13323
▁pub	-13324
▁eighth	-13325
▁Zero	-13326
▁buses	-13327
▁query	-13328
▁locally	-13329
▁straightforward	-13330
idges	-13331
▁prest	-13332
▁Mueller	-13333
umbl	-13334
▁Agree	-13335
▁pants	-13336
▁switched	-13337
nesty	-13338
▁Pros	-13339
▁infamous	-13340
▁gods	-13341
▁republic	-13342
▁lap	-13343
▁detection	-13344
▁forums	-13345
gel	-13346
DE	-13347
▁gray	-13348
▁skilled	-13349
▁exercises	-13350
▁halt	-13351
▁paragraph	-13352
▁neat	-13353
Time	-13354
▁Chile	-13355
rowth	-13356
▁Griffin	-13357
▁Apparently	-13358
▁Mi	-13359
▁corporation	-13360
▁autonomous	-13361
▁GMT	-13362
▁Spurs	-13363
▁classical	-13364
▁Certain	-13365
viol	-13366
pered	-13367
▁obligation	-13368
▁striker	-13369
▁disk	-13370
abul	-13371
artisan	-13372
▁disadvant	-13373
issance	-13374
▁trap	-13375
iberal	-13376
ocumented	-13377
▁mortality	-13378
▁frustrating	-13379
▁Legend	-13380
▁listing	-13381
▁adjusted	-13382
▁nominated	-13383
▁nuts	-13384
uum	-13385
▁sie	-13386
funded	-13387
▁dealers	-13388
▁McCarthy	-13389
▁holy	-13390
▁charts	-13391
▁Hero	-13392
▁Fourth	-13393
▁demon	-13394
▁Fly	-13395
▁Teh	-13396
▁prox	-13397
ppo	-13398
qual	-13399
▁seiz	-13400
▁alternate	-13401
ignty	-13402
▁colonial	-13403
lett	-13404
▁Iceland	-13405
▁searches	-13406
▁intend	-13407
▁athlete	-13408
cs	-13409
four	-13410
▁celebrating	-13411
▁practically	-13412
▁drought	-13413
▁fame	-13414
▁grat	-13415
▁iTunes	-13416
bean	-13417
oubted	-13418
bul	-13419
actic	-13420
▁privately	-13421
illery	-13422
▁rebell	-13423
▁edges	-13424
▁Bryant	-13425
▁limiting	-13426
enc	-13427
▁Colon	-13428
▁Pokémon	-13429
▁diagnosis	-13430
▁classroom	-13431
▁Visit	-13432
▁Episode	-13433
▁healing	-13434
Even	-13435
▁Forum	-13436
▁hood	-13437
▁expose	-13438
▁demonstrations	-13439
rament	-13440
▁***	-13441
▁Bryan	-13442
▁observers	-13443
olutions	-13444
ahn	-13445
▁accommodate	-13446
UE	-13447
▁dash	-13448
▁NA	-13449
▁outbreak	-13450
proof	-13451
▁cher	-13452
▁cm	-13453
▁memorial	-13454
▁Malaysia	-13455
▁laboratory	-13456
hner	-13457
Cal	-13458
▁REL	-13459
▁ports	-13460
ository	-13461
▁Qatar	-13462
▁Creek	-13463
▁desperately	-13464
▁Abs	-13465
▁entries	-13466
▁plea	-13467
▁Titan	-13468
▁diabetes	-13469
▁HBO	-13470
▁raped	-13471
▁imagined	-13472
▁stays	-13473
anto	-13474
▁besides	-13475
See	-13476
insula	-13477
▁matched	-13478
▁killings	-13479
▁gallery	-13480
▁Spot	-13481
▁evaluation	-13482
▁vessel	-13483
▁formerly	-13484
▁Greens	-13485
▁loving	-13486
▁dioxide	-13487
▁orche	-13488
blem	-13489
▁linear	-13490
▁sisters	-13491
View	-13492
▁elaborate	-13493
▁whilst	-13494
respons	-13495
▁delicious	-13496
uv	-13497
ioned	-13498
eren	-13499
remlin	-13500
▁Break	-13501
▁fundamentally	-13502
▁territories	-13503
▁Bangl	-13504
▁misleading	-13505
azed	-13506
wealth	-13507
▁Create	-13508
▁historian	-13509
▁MB	-13510
▁Pun	-13511
▁Learn	-13512
▁linebacker	-13513
pelled	-13514
▁closure	-13515
▁substantially	-13516
▁dated	-13517
▁behaviors	-13518
▁Julian	-13519
CR	-13520
▁spill	-13521
itis	-13522
▁hungry	-13523
▁Rush	-13524
▁photography	-13525
▁Bobby	-13526
▁Thailand	-13527
letter	-13528
▁uncons	-13529
ovic	-13530
▁Ib	-13531
▁qualities	-13532
▁Cuban	-13533
ocaust	-13534
▁attributes	-13535
▁Ot	-13536
▁Soccer	-13537
▁carriers	-13538
▁rubber	-13539
▁Account	-13540
▁metres	-13541
team	-13542
▁Confeder	-13543
▁bikes	-13544
roots	-13545
Who	-13546
▁flowers	-13547
▁Barbara	-13548
▁chase	-13549
▁Rico	-13550
▁friendship	-13551
▁quad	-13552
▁Linked	-13553
▁enthusiasm	-13554
▁GB	-13555
var	-13556
▁oh	-13557
▁loyalty	-13558
othy	-13559
▁revised	-13560
▁sink	-13561
writing	-13562
▁examination	-13563
entials	-13564
▁Palace	-13565
▁convey	-13566
▁tribal	-13567
▁pitcher	-13568
▁Fran	-13569
ittees	-13570
▁demographic	-13571
▁reception	-13572
▁Village	-13573
gro	-13574
▁dangers	-13575
fix	-13576
▁ammunition	-13577
▁pile	-13578
▁doctrine	-13579
▁effectiveness	-13580
Fr	-13581
▁accountability	-13582
▁Ele	-13583
▁newest	-13584
▁garage	-13585
▁dispens	-13586
▁medal	-13587
▁expressing	-13588
▁FL	-13589
▁RAM	-13590
▁Analysis	-13591
▁bloody	-13592
▁Regional	-13593
▁Mul	-13594
puted	-13595
▁loses	-13596
iology	-13597
mination	-13598
▁ignoring	-13599
▁Additional	-13600
urring	-13601
keys	-13602
▁Butler	-13603
▁nit	-13604
▁exhibition	-13605
▁Jav	-13606
▁chemistry	-13607
uru	-13608
▁fulfill	-13609
irk	-13610
.“	-13611
▁Days	-13612
▁infer	-13613
Semit	-13614
]:	-13615
▁belongs	-13616
▁Diamond	-13617
▁Webs	-13618
▁Legal	-13619
▁measurements	-13620
agging	-13621
▁consume	-13622
▁spectacular	-13623
ortions	-13624
▁modes	-13625
▁fiber	-13626
▁modules	-13627
▁sacred	-13628
▁inevitably	-13629
▁twitter	-13630
.:	-13631
▁grey	-13632
▁Richmond	-13633
▁outdoor	-13634
kg	-13635
▁String	-13636
▁altered	-13637
▁BP	-13638
▁Help	-13639
▁prejud	-13640
▁arranged	-13641
alin	-13642
ften	-13643
▁regulate	-13644
opes	-13645
▁skeptical	-13646
▁locker	-13647
▁relies	-13648
▁	-13649
▁algorithms	-13650
▁declining	-13651
▁considerably	-13652
▁lasting	-13653
▁reinfor	-13654
semble	-13655
his	-13656
▁Late	-13657
▁Shah	-13658
▁withdrawal	-13659
▁bind	-13660
abad	-13661
▁foul	-13662
rolling	-13663
▁disclose	-13664
▁manages	-13665
▁solved	-13666
▁playback	-13667
▁schemes	-13668
▁Auto	-13669
▁Invalid	-13670
NE	-13671
▁Czech	-13672
ITY	-13673
▁reduces	-13674
▁shy	-13675
▁insure	-13676
▁Phillips	-13677
▁Mall	-13678
chair	-13679
▁tackles	-13680
▁permanently	-13681
▁Fame	-13682
▁Fish	-13683
▁Packers	-13684
▁pipe	-13685
▁strings	-13686
▁toys	-13687
▁unle	-13688
▁exagger	-13689
▁Tigers	-13690
▁Target	-13691
▁Maj	-13692
▁labeled	-13693
▁exceptional	-13694
▁yours	-13695
▁aide	-13696
wer	-13697
▁medication	-13698
oubtedly	-13699
feed	-13700
▁fines	-13701
▁aggreg	-13702
▁pseud	-13703
▁MLB	-13704
▁monument	-13705
▁proc	-13706
izont	-13707
▁Starting	-13708
▁variations	-13709
▁juice	-13710
=”	-13711
▁confusing	-13712
Qaeda	-13713
▁twin	-13714
▁Bannon	-13715
national	-13716
▁Zion	-13717
John	-13718
mile	-13719
Ed	-13720
▁Pad	-13721
iga	-13722
▁Roth	-13723
▁Kate	-13724
oween	-13725
▁cancelled	-13726
▁teenagers	-13727
tor	-13728
▁Stra	-13729
▁militant	-13730
▁volumes	-13731
▁deleted	-13732
▁briefing	-13733
▁Politics	-13734
▁McD	-13735
▁Shield	-13736
Id	-13737
▁inhabit	-13738
ieval	-13739
▁kernel	-13740
▁midst	-13741
rus	-13742
represent	-13743
▁Survey	-13744
▁filmed	-13745
▁occurring	-13746
▁tuned	-13747
▁freshman	-13748
▁Marcus	-13749
▁outlined	-13750
▁heter	-13751
black	-13752
▁differ	-13753
▁shapes	-13754
▁premiere	-13755
▁misconduct	-13756
▁fancy	-13757
▁Sunni	-13758
▁skull	-13759
▁Daw	-13760
▁predomin	-13761
▁CBC	-13762
borough	-13763
runner	-13764
▁unre	-13765
icers	-13766
!!!	-13767
▁thumb	-13768
▁overhaul	-13769
▁obligations	-13770
▁shipped	-13771
▁denying	-13772
▁defining	-13773
▁felony	-13774
▁bedroom	-13775
▁organizers	-13776
HD	-13777
▁Applic	-13778
▁governance	-13779
ulsion	-13780
▁divisions	-13781
riel	-13782
▁presidents	-13783
aneous	-13784
▁Biden	-13785
ervation	-13786
onge	-13787
wear	-13788
▁Pin	-13789
▁Chamber	-13790
wick	-13791
▁processed	-13792
degree	-13793
▁Hurricane	-13794
▁Planet	-13795
uki	-13796
▁inability	-13797
▁Gand	-13798
▁Lev	-13799
▁Cant	-13800
▁Clean	-13801
▁maintains	-13802
mines	-13803
▁Cab	-13804
▁Ultimately	-13805
manuel	-13806
▁finals	-13807
▁billionaire	-13808
marks	-13809
▁unacceptable	-13810
▁relate	-13811
▁submar	-13812
▁accidentally	-13813
▁Really	-13814
▁Browns	-13815
▁vigil	-13816
▁Nag	-13817
▁pound	-13818
▁unlimited	-13819
▁Sandy	-13820
▁Bishop	-13821
▁heroin	-13822
▁strictly	-13823
▁Pil	-13824
ango	-13825
▁Clay	-13826
▁horses	-13827
▁restored	-13828
Christ	-13829
▁scram	-13830
▁Dawn	-13831
▁wip	-13832
ulu	-13833
Us	-13834
▁spirits	-13835
▁Surv	-13836
istically	-13837
▁Om	-13838
▁Few	-13839
▁Continued	-13840
▁symbols	-13841
▁Snap	-13842
▁prescription	-13843
▁underneath	-13844
lementary	-13845
▁dive	-13846
▁Lang	-13847
▁wrap	-13848
aires	-13849
▁Tib	-13850
▁meg	-13851
▁sanct	-13852
▁wounds	-13853
▁snap	-13854
clusion	-13855
▁cargo	-13856
▁demonstrates	-13857
▁Poly	-13858
▁sells	-13859
▁Commerce	-13860
▁MIT	-13861
▁mature	-13862
▁quo	-13863
working	-13864
▁VP	-13865
▁rage	-13866
▁binding	-13867
▁reasonably	-13868
▁automated	-13869
main	-13870
▁victories	-13871
▁Cape	-13872
▁Nancy	-13873
▁Minor	-13874
▁flesh	-13875
▁licenses	-13876
▁midnight	-13877
▁genuinely	-13878
▁IBM	-13879
▁spite	-13880
▁spends	-13881
▁Kill	-13882
▁stepping	-13883
▁Lem	-13884
▁Kath	-13885
▁Rud	-13886
▁Chronicle	-13887
▁sexuality	-13888
List	-13889
▁tribute	-13890
▁impe	-13891
▁partisan	-13892
lation	-13893
▁shutdown	-13894
rones	-13895
▁empower	-13896
▁Beer	-13897
▁Newton	-13898
▁puzzle	-13899
Mod	-13900
fly	-13901
ocide	-13902
IFA	-13903
kh	-13904
agged	-13905
▁lovely	-13906
▁artic	-13907
▁Border	-13908
Because	-13909
▁hearings	-13910
airo	-13911
▁ALL	-13912
ranean	-13913
▁Vi	-13914
UI	-13915
aton	-13916
▁dancing	-13917
▁successor	-13918
▁corrid	-13919
cill	-13920
▁tolerance	-13921
▁Brothers	-13922
▁Tar	-13923
▁mentions	-13924
olutely	-13925
▁aboard	-13926
▁streams	-13927
▁Nar	-13928
▁guilt	-13929
▁Bed	-13930
▁extends	-13931
▁Gam	-13932
▁piv	-13933
▁preseason	-13934
▁autism	-13935
▁Edge	-13936
▁flows	-13937
▁Cardinals	-13938
forming	-13939
▁anonymity	-13940
▁confronted	-13941
izards	-13942
▁discon	-13943
rone	-13944
heimer	-13945
▁spotlight	-13946
▁SO	-13947
▁MVP	-13948
▁Nathan	-13949
ripp	-13950
▁malware	-13951
thirds	-13952
▁contractors	-13953
▁analyses	-13954
▁boats	-13955
▁speeches	-13956
▁leap	-13957
holder	-13958
▁exhibit	-13959
arette	-13960
▁coastal	-13961
prom	-13962
apor	-13963
▁Bird	-13964
▁Assange	-13965
▁Sources	-13966
sche	-13967
▁Orthodox	-13968
▁Tru	-13969
▁wand	-13970
▁parade	-13971
▁negotiating	-13972
▁artif	-13973
▁Dra	-13974
▁TODAY	-13975
CL	-13976
accur	-13977
▁Sens	-13978
▁Throughout	-13979
▁backlash	-13980
▁vendors	-13981
pit	-13982
▁Raw	-13983
▁risen	-13984
▁Fan	-13985
▁Ax	-13986
▁Shi	-13987
▁jack	-13988
▁signatures	-13989
retion	-13990
names	-13991
▁Jesse	-13992
▁incoming	-13993
bling	-13994
▁incumb	-13995
▁doubts	-13996
▁Holmes	-13997
zi	-13998
▁advers	-13999
...]	-14000
▁Jobs	-14001
▁translate	-14002
▁SF	-14003
Up	-14004
image	-14005
hole	-14006
▁luc	-14007
▁recommendation	-14008
azines	-14009
ickets	-14010
oping	-14011
▁mate	-14012
▁donate	-14013
▁tourism	-14014
▁embraced	-14015
▁rendering	-14016
▁publications	-14017
▁electronics	-14018
▁Panthers	-14019
▁frankly	-14020
▁gard	-14021
▁Pete	-14022
▁Okay	-14023
▁Drag	-14024
▁lined	-14025
▁rede	-14026
▁Austria	-14027
▁grocery	-14028
▁facilitate	-14029
▁intens	-14030
▁nodes	-14031
▁CSS	-14032
space	-14033
▁melt	-14034
thereum	-14035
▁Mitch	-14036
▁battlefield	-14037
ungle	-14038
▁disclosed	-14039
▁intake	-14040
▁subjected	-14041
ipt	-14042
▁Together	-14043
mingham	-14044
▁Garcia	-14045
▁consistency	-14046
▁SA	-14047
▁indef	-14048
▁Castle	-14049
▁tube	-14050
oust	-14051
▁travelling	-14052
lickr	-14053
▁functioning	-14054
▁honour	-14055
rawl	-14056
▁Hig	-14057
▁Erd	-14058
▁sovereignty	-14059
▁Ferr	-14060
▁vessels	-14061
▁Machine	-14062
▁premier	-14063
also	-14064
▁tier	-14065
usterity	-14066
▁sponsor	-14067
▁admin	-14068
▁salaries	-14069
▁legislators	-14070
▁rings	-14071
▁Imperial	-14072
▁Cou	-14073
▁sporting	-14074
▁dot	-14075
▁firearm	-14076
▁Going	-14077
jar	-14078
▁Regardless	-14079
ido	-14080
▁Chand	-14081
▁generic	-14082
▁arrives	-14083
INE	-14084
▁MI	-14085
▁od	-14086
iri	-14087
”—	-14088
▁Boeing	-14089
▁Arc	-14090
▁outlet	-14091
▁erupt	-14092
▁LLC	-14093
▁Happy	-14094
▁nort	-14095
▁Beast	-14096
▁Wade	-14097
riages	-14098
▁pale	-14099
▁namely	-14100
Post	-14101
▁surveys	-14102
▁lacks	-14103
▁hydrogen	-14104
▁"[	-14105
▁Colin	-14106
Israel	-14107
▁AV	-14108
▁proport	-14109
▁Month	-14110
▁astronaut	-14111
▁Mans	-14112
ARD	-14113
▁encrypt	-14114
▁muscles	-14115
▁switching	-14116
▁с	-14117
headed	-14118
▁stealing	-14119
entions	-14120
▁Animal	-14121
▁binary	-14122
▁Pictures	-14123
▁Batt	-14124
▁confidential	-14125
▁HE	-14126
▁stroke	-14127
▁hash	-14128
umns	-14129
▁airpl	-14130
edge	-14131
▁Wells	-14132
▁completing	-14133
▁bipartisan	-14134
▁clarity	-14135
▁arrangements	-14136
▁united	-14137
aughed	-14138
▁marketplace	-14139
▁Mode	-14140
▁catching	-14141
▁objectives	-14142
▁casualties	-14143
---	-14144
▁pretend	-14145
Ab	-14146
inery	-14147
▁Computer	-14148
▁rolls	-14149
▁genius	-14150
ggle	-14151
▁adverse	-14152
osi	-14153
▁hunger	-14154
▁drilling	-14155
▁fortun	-14156
▁Hait	-14157
▁propri	-14158
ierra	-14159
fam	-14160
▁glasses	-14161
▁sponsors	-14162
▁tongue	-14163
▁Got	-14164
▁utterly	-14165
▁Rodgers	-14166
▁subscribing	-14167
▁ware	-14168
▁refusal	-14169
▁flooding	-14170
uity	-14171
▁Classic	-14172
lies	-14173
▁Hopefully	-14174
▁sect	-14175
closed	-14176
▁blown	-14177
▁dense	-14178
▁Flight	-14179
▁Picture	-14180
El	-14181
▁coat	-14182
▁Kor	-14183
▁Samuel	-14184
▁cares	-14185
constitutional	-14186
▁Crow	-14187
▁Sudan	-14188
▁concess	-14189
▁shortage	-14190
▁Horn	-14191
▁Index	-14192
▁slic	-14193
ucc	-14194
pless	-14195
▁disability	-14196
▁EM	-14197
▁Quinn	-14198
terior	-14199
ulator	-14200
oriented	-14201
▁bureaucrat	-14202
▁electro	-14203
lay	-14204
▁necessity	-14205
▁murders	-14206
▁Alice	-14207
▁defic	-14208
▁Someone	-14209
▁Actually	-14210
▁Baghd	-14211
▁vowed	-14212
▁plates	-14213
▁Content	-14214
▁Stay	-14215
▁cute	-14216
▁tactical	-14217
▁characterized	-14218
▁determining	-14219
▁libertarian	-14220
del	-14221
sis	-14222
▁Winn	-14223
▁LG	-14224
▁sweeping	-14225
▁enabling	-14226
▁Agricult	-14227
▁predecessor	-14228
▁artwork	-14229
▁lately	-14230
▁Baseball	-14231
bad	-14232
▁Fortunately	-14233
▁Nine	-14234
▁Mis	-14235
Press	-14236
▁Deal	-14237
▁seam	-14238
▁surpass	-14239
Yeah	-14240
▁convincing	-14241
ogg	-14242
▁{\	-14243
▁cab	-14244
▁alumin	-14245
▁forests	-14246
▁adapted	-14247
▁laughed	-14248
▁bearing	-14249
▁globally	-14250
▁useless	-14251
▁Halloween	-14252
▁hardest	-14253
▁Angela	-14254
▁USS	-14255
▁clouds	-14256
▁ward	-14257
px	-14258
▁HR	-14259
uting	-14260
▁Spect	-14261
▁businessman	-14262
▁dignity	-14263
▁Joel	-14264
▁defendants	-14265
▁Sem	-14266
▁Tehran	-14267
▁Strong	-14268
▁Lot	-14269
▁liability	-14270
mos	-14271
▁Kaz	-14272
▁endorsement	-14273
▁Opt	-14274
arcer	-14275
NY	-14276
▁oversee	-14277
▁hind	-14278
▁renov	-14279
▁glory	-14280
▁aliens	-14281
▁Trav	-14282
▁Luther	-14283
ernandez	-14284
?!	-14285
abel	-14286
▁villain	-14287
▁Nashville	-14288
▁taxi	-14289
write	-14290
Com	-14291
▁drill	-14292
▁legitim	-14293
▁nightmare	-14294
kens	-14295
ufficient	-14296
▁Girls	-14297
▁reviewing	-14298
USA	-14299
▁haul	-14300
▁tablets	-14301
▁notorious	-14302
▁protective	-14303
▁cooling	-14304
outed	-14305
▁sometime	-14306
▁financially	-14307
▁Nep	-14308
uns	-14309
far	-14310
▁TE	-14311
▁Occupy	-14312
▁Chen	-14313
castle	-14314
▁sweep	-14315
▁aston	-14316
▁ende	-14317
▁analyzed	-14318
oute	-14319
▁в	-14320
▁Bott	-14321
▁newer	-14322
▁Affordable	-14323
▁achieving	-14324
▁cu	-14325
▁Shaw	-14326
▁acute	-14327
▁dominate	-14328
▁retro	-14329
HINGTON	-14330
▁mosque	-14331
▁mall	-14332
▁artistic	-14333
▁pray	-14334
building	-14335
▁quarters	-14336
▁portrayed	-14337
▁navigate	-14338
▁cancel	-14339
▁tricks	-14340
▁Cox	-14341
▁readily	-14342
▁fond	-14343
amped	-14344
▁affiliate	-14345
ashi	-14346
▁Brend	-14347
atican	-14348
▁attackers	-14349
▁vet	-14350
▁apologize	-14351
▁AG	-14352
▁Wire	-14353
▁mistaken	-14354
▁extending	-14355
▁stimulus	-14356
▁Sold	-14357
LD	-14358
▁Protest	-14359
▁Bear	-14360
▁Kremlin	-14361
▁aqu	-14362
▁Compan	-14363
▁charter	-14364
▁relied	-14365
▁subscribers	-14366
vised	-14367
▁Birmingham	-14368
▁lighter	-14369
▁tribe	-14370
▁lesbian	-14371
▁prevention	-14372
▁Lan	-14373
▁heal	-14374
▁Nobel	-14375
▁Firefox	-14376
▁frames	-14377
▁cure	-14378
His	-14379
▁referen	-14380
▁persist	-14381
Muslim	-14382
▁jurisdiction	-14383
talk	-14384
▁credited	-14385
rend	-14386
MM	-14387
▁troubled	-14388
▁reiter	-14389
▁Attack	-14390
▁incon	-14391
▁Path	-14392
▁Sach	-14393
monton	-14394
▁biology	-14395
aters	-14396
▁spat	-14397
▁redist	-14398
▁migr	-14399
▁holders	-14400
BER	-14401
ITH	-14402
▁Grey	-14403
▁twelve	-14404
pection	-14405
▁straw	-14406
WA	-14407
▁relent	-14408
SC	-14409
orus	-14410
▁Pink	-14411
▁Jessica	-14412
▁Rodriguez	-14413
▁Arabic	-14414
▁settlements	-14415
▁gau	-14416
▁tourist	-14417
▁poses	-14418
▁rental	-14419
▁listened	-14420
▁Swift	-14421
▁ME	-14422
▁stark	-14423
yang	-14424
▁Citizens	-14425
aired	-14426
▁upside	-14427
Look	-14428
▁rats	-14429
bled	-14430
▁Reform	-14431
▁Duncan	-14432
utenant	-14433
▁violate	-14434
zilla	-14435
respect	-14436
▁Martine	-14437
▁ram	-14438
▁specify	-14439
▁treasure	-14440
pic	-14441
▁exploitation	-14442
▁antibiot	-14443
▁Brewing	-14444
▁eleg	-14445
▁Mes	-14446
▁Portugal	-14447
spr	-14448
▁TC	-14449
bank	-14450
▁aides	-14451
official	-14452
▁Globe	-14453
▁cousin	-14454
aky	-14455
▁IG	-14456
▁inflamm	-14457
▁barrels	-14458
ithub	-14459
▁famously	-14460
▁duo	-14461
Men	-14462
▁assembled	-14463
▁drown	-14464
▁Kos	-14465
▁syndrome	-14466
▁runner	-14467
▁insights	-14468
orable	-14469
▁proving	-14470
velt	-14471
▁Finn	-14472
▁Wii	-14473
▁Aleppo	-14474
▁pronounced	-14475
▁neurons	-14476
▁revelation	-14477
▁Large	-14478
amy	-14479
▁wash	-14480
plant	-14481
Islam	-14482
▁USD	-14483
▁oral	-14484
▁Mohammed	-14485
▁credible	-14486
▁sensitivity	-14487
▁Release	-14488
▁fart	-14489
▁intersection	-14490
▁Armed	-14491
▁kicking	-14492
omatic	-14493
▁NHS	-14494
▁declaring	-14495
▁Taking	-14496
▁arbitrary	-14497
▁theoretical	-14498
▁elevated	-14499
▁committing	-14500
▁Palmer	-14501
▁physician	-14502
▁voluntary	-14503
▁Foster	-14504
▁hem	-14505
▁Peterson	-14506
▁pockets	-14507
green	-14508
▁Student	-14509
especially	-14510
▁violating	-14511
BL	-14512
osures	-14513
kar	-14514
▁accusing	-14515
anti	-14516
▁risky	-14517
omo	-14518
▁persistent	-14519
▁descend	-14520
▁tournaments	-14521
▁WASHINGTON	-14522
▁Chiefs	-14523
▁nationally	-14524
umblr	-14525
▁revelations	-14526
▁breakthrough	-14527
▁Catal	-14528
▁urgent	-14529
▁unsuccess	-14530
▁dissent	-14531
▁Roose	-14532
▁Ru	-14533
▁dread	-14534
▁Trail	-14535
▁patience	-14536
▁receivers	-14537
▁pistol	-14538
ulin	-14539
▁equation	-14540
▁PDF	-14541
ML	-14542
▁mobility	-14543
▁Drew	-14544
▁massacre	-14545
▁Shin	-14546
▁Sacrament	-14547
▁magazines	-14548
▁gi	-14549
▁definitive	-14550
▁Zach	-14551
▁Sex	-14552
▁esp	-14553
▁nurse	-14554
▁neo	-14555
▁tricky	-14556
obi	-14557
▁Lore	-14558
▁Immigration	-14559
▁fortune	-14560
char	-14561
▁Zimmer	-14562
▁incomes	-14563
▁Specific	-14564
control	-14565
▁cache	-14566
▁spells	-14567
disc	-14568
▁deterior	-14569
produ	-14570
▁evolutionary	-14571
▁warr	-14572
▁Hispanic	-14573
▁substitute	-14574
▁varying	-14575
▁petro	-14576
▁backers	-14577
▁expectation	-14578
nut	-14579
▁Yankees	-14580
▁Enterprise	-14581
atched	-14582
▁reluctant	-14583
▁Ll	-14584
▁tribes	-14585
amo	-14586
omi	-14587
▁diamond	-14588
▁Vatican	-14589
nex	-14590
▁heated	-14591
──	-14592
▁beside	-14593
▁OP	-14594
three	-14595
cond	-14596
▁favorable	-14597
▁albeit	-14598
▁recipes	-14599
▁mant	-14600
agonist	-14601
▁Nigeria	-14602
▁Joint	-14603
▁separately	-14604
▁preferences	-14605
exp	-14606
▁sketch	-14607
mined	-14608
▁inspire	-14609
▁depri	-14610
▁blend	-14611
eta	-14612
▁pairs	-14613
AK	-14614
▁Process	-14615
▁),	-14616
▁Brig	-14617
▁interim	-14618
ICK	-14619
▁Jong	-14620
▁provin	-14621
▁Dear	-14622
▁Dim	-14623
▁RO	-14624
▁identities	-14625
▁factories	-14626
▁profitable	-14627
fin	-14628
▁memorable	-14629
▁obesity	-14630
▁FIFA	-14631
▁laying	-14632
▁analyze	-14633
▁graduated	-14634
▁meta	-14635
▁bullets	-14636
adequ	-14637
▁blogs	-14638
▁Aven	-14639
▁worries	-14640
▁batch	-14641
▁clause	-14642
▁expressions	-14643
▁Laden	-14644
▁Unless	-14645
ometown	-14646
ulates	-14647
ausible	-14648
▁entrepreneur	-14649
▁attraction	-14650
frame	-14651
▁texture	-14652
▁banner	-14653
▁starring	-14654
▁invisible	-14655
▁Wheel	-14656
hum	-14657
▁CT	-14658
▁submission	-14659
oos	-14660
▁overtime	-14661
▁toilet	-14662
▁Nexus	-14663
▁intentionally	-14664
▁Cell	-14665
▁Were	-14666
▁Hughes	-14667
irmed	-14668
▁crews	-14669
▁summar	-14670
itutes	-14671
unks	-14672
▁Made	-14673
▁recreational	-14674
inis	-14675
angered	-14676
Are	-14677
▁handy	-14678
▁pp	-14679
▁defendant	-14680
REE	-14681
although	-14682
▁donor	-14683
▁precedent	-14684
▁kicks	-14685
amation	-14686
▁VM	-14687
▁relying	-14688
▁aiming	-14689
▁unaware	-14690
▁varied	-14691
▁liv	-14692
server	-14693
▁cycles	-14694
▁ster	-14695
▁Engineering	-14696
▁undoubtedly	-14697
▁excluded	-14698
▁Alb	-14699
▁valued	-14700
rophic	-14701
rogen	-14702
ete	-14703
iances	-14704
unning	-14705
▁Ring	-14706
▁Finland	-14707
▁kilometers	-14708
▁Clarke	-14709
▁sheets	-14710
▁enroll	-14711
▁unlock	-14712
hend	-14713
fight	-14714
▁implies	-14715
▁attribute	-14716
▁Indianapolis	-14717
▁Wor	-14718
▁Welcome	-14719
▁Edmonton	-14720
▁fictional	-14721
▁RPG	-14722
▁caut	-14723
▁Israelis	-14724
▁maneu	-14725
▁galaxy	-14726
▁misunder	-14727
ür	-14728
▁distinguish	-14729
bone	-14730
▁flaws	-14731
public	-14732
ribly	-14733
▁Often	-14734
World	-14735
▁Chip	-14736
▁socially	-14737
▁Carm	-14738
▁pause	-14739
▁theaters	-14740
▁contractor	-14741
economic	-14742
▁Wol	-14743
▁Montana	-14744
▁influences	-14745
▁broadc	-14746
▁finale	-14747
▁rect	-14748
terrorism	-14749
▁aster	-14750
▁Ground	-14751
achers	-14752
▁Sullivan	-14753
▁disappointment	-14754
▁Dynam	-14755
▁ic	-14756
то	-14757
third	-14758
▁searched	-14759
braska	-14760
▁sticks	-14761
Gener	-14762
intage	-14763
▁ate	-14764
▁Queensland	-14765
▁stranger	-14766
▁Wa	-14767
▁Raf	-14768
▁Performance	-14769
inho	-14770
▁foster	-14771
Mr	-14772
▁discourse	-14773
cerpt	-14774
▁Boehner	-14775
▁measuring	-14776
▁Chem	-14777
▁proves	-14778
▁psy	-14779
▁bout	-14780
▁Oz	-14781
▁Dere	-14782
▁Jeffrey	-14783
blog	-14784
▁Criminal	-14785
▁associations	-14786
▁rou	-14787
▁revenge	-14788
ospel	-14789
▁Trad	-14790
▁arise	-14791
Pres	-14792
▁terrain	-14793
php	-14794
▁helmet	-14795
▁Challenge	-14796
aba	-14797
▁outfit	-14798
▁eventual	-14799
▁neural	-14800
▁debris	-14801
▁μ	-14802
▁correlation	-14803
▁HTC	-14804
▁authentic	-14805
▁Bangladesh	-14806
▁seal	-14807
▁contributor	-14808
▁loading	-14809
▁prey	-14810
▁Jared	-14811
▁Kay	-14812
ANT	-14813
▁Lic	-14814
ahan	-14815
aternal	-14816
▁gaps	-14817
▁Wait	-14818
▁ski	-14819
culus	-14820
▁pitching	-14821
ambers	-14822
ucle	-14823
▁imports	-14824
▁euros	-14825
▁prayers	-14826
▁Mine	-14827
telling	-14828
▁neutrality	-14829
▁tactic	-14830
▁Athlet	-14831
▁fisher	-14832
▁Ask	-14833
▁Ahmed	-14834
▁Cool	-14835
▁teammate	-14836
▁worrying	-14837
▁vib	-14838
▁Heritage	-14839
▁Originally	-14840
iche	-14841
ainted	-14842
▁Training	-14843
▁Fac	-14844
▁sticking	-14845
▁н	-14846
appro	-14847
▁obstacles	-14848
▁ERA	-14849
vet	-14850
▁Motors	-14851
▁cyn	-14852
▁dynamics	-14853
TION	-14854
▁defines	-14855
▁Chancellor	-14856
anne	-14857
▁Merced	-14858
▁philosophical	-14859
SL	-14860
▁ours	-14861
▁Costa	-14862
▁Walt	-14863
▁subway	-14864
▁Proper	-14865
ovich	-14866
▁GA	-14867
▁Website	-14868
▁Observ	-14869
▁assaulted	-14870
▁Pract	-14871
▁broadly	-14872
▁pond	-14873
display	-14874
▁invitation	-14875
▁youngest	-14876
umbers	-14877
▁Alpha	-14878
▁epidemic	-14879
RO	-14880
▁summon	-14881
▁Traff	-14882
▁ballots	-14883
arez	-14884
▁mush	-14885
ostal	-14886
▁Mong	-14887
Spe	-14888
▁achievements	-14889
▁Potter	-14890
spoken	-14891
▁multiplayer	-14892
umbai	-14893
Off	-14894
▁orb	-14895
pound	-14896
▁Dise	-14897
▁ank	-14898
▁Barn	-14899
▁Privacy	-14900
▁provinces	-14901
▁maj	-14902
▁variant	-14903
▁supplied	-14904
▁pup	-14905
▁puck	-14906
larg	-14907
▁inventory	-14908
God	-14909
▁Presidential	-14910
▁malicious	-14911
▁crowded	-14912
▁Advanced	-14913
▁[...]	-14914
▁Weekly	-14915
▁Broadway	-14916
▁GP	-14917
▁semin	-14918
▁Roosevelt	-14919
▁Zen	-14920
▁martial	-14921
▁Weather	-14922
▁swept	-14923
▁uncovered	-14924
▁grandfather	-14925
educ	-14926
▁Murd	-14927
▁consulting	-14928
▁incarcer	-14929
▁facial	-14930
————————	-14931
▁banning	-14932
▁skip	-14933
▁trump	-14934
▁Baby	-14935
▁Sierra	-14936
▁naval	-14937
▁initiated	-14938
▁minim	-14939
▁narc	-14940
▁Cav	-14941
▁Cit	-14942
▁fitting	-14943
▁AF	-14944
lass	-14945
▁Matter	-14946
▁offenders	-14947
▁entertaining	-14948
▁rises	-14949
▁apt	-14950
▁Chase	-14951
▁Senators	-14952
▁Comment	-14953
▁starters	-14954
erting	-14955
[...]
